{
  "version": "1.0",
  "truncation": null,
  "padding": null,
  "added_tokens": [
    {
      "id": 0,
      "content": "<unk>",
      "single_word": false,
      "lstrip": false,
      "rstrip": false,
      "normalized": false,
      "special": true
    },
    {
      "id": 1,
      "content": "<s>",
      "single_word": false,
      "lstrip": false,
      "rstrip": false,
      "normalized": false,
      "special": true
    },
    {
      "id": 2,
      "content": "</s>",
      "single_word": false,
      "lstrip": false,
      "rstrip": false,
      "normalized": false,
      "special": true
    },
    {
      "id": 3,
      "content": "<pad>",
      "single_word": false,
      "lstrip": false,
      "rstrip": false,
      "normalized": false,
      "special": true
    }
  ],
  "normalizer": {
    "type": "Sequence",
    "normalizers": [
      {
        "type": "Replace",
        "pattern": {
          "Regex": "[\\u00AD\\u200B\\u200C\\u200D\\u2060\\uFEFF]"
        },
        "content": ""
      },
      {
        "type": "Replace",
        "pattern": {
          "Regex": "\\p{Zs}"
        },
        "content": " "
      },
      {
        "type": "NFC"
      }
    ]
  },
  "pre_tokenizer": {
    "type": "Metaspace",
    "replacement": "▁",
    "prepend_scheme": "always",
    "split": true
  },
  "post_processor": null,
  "decoder": {
    "type": "Sequence",
    "decoders": [
      {
        "type": "ByteFallback"
      },
      {
        "type": "Fuse"
      },
      {
        "type": "Replace",
        "pattern": {
          "String": "▁"
        },
        "content": " "
      },
      {
        "type": "Strip",
        "content": " ",
        "start": 1,
        "stop": 0
      }
    ]
  },
  "model": {
    "type": "Unigram",
    "unk_id": 0,
    "vocab": [
      [
        "<unk>",
        0.0
      ],
      [
        "<s>",
        0.0
      ],
      [
        "</s>",
        0.0
      ],
      [
        "<pad>",
        0.0
      ],
      [
        "▁",
        -2.22583382181465
      ],
      [
        "▁the",
        -3.9178444281552487
      ],
      [
        ".",
        -4.161106827424788
      ],
      [
        ",",
        -4.172889536367482
      ],
      [
        "s",
        -4.309278417962297
      ],
      [
        "and",
        -4.3498011999228705
      ],
      [
        "၊",
        -4.482800735253562
      ],
      [
        "▁a",
        -4.511512719748119
      ],
      [
        "▁to",
        -4.535614359193428
      ],
      [
        "။",
        -4.5926494202481205
      ],
      [
        "▁of",
        -4.630749761924488
      ],
      [
        "ing",
        -5.141292101975706
      ],
      [
        ")",
        -5.181628393713103
      ],
      [
        "ဂှ်",
        -5.227222160761153
      ],
      [
        "▁in",
        -5.228343018754856
      ],
      [
        "▁is",
        -5.367658904921745
      ],
      [
        "ရ။",
        -5.554166606958232
      ],
      [
        "တုဲ",
        -5.5926990604821345
      ],
      [
        "▁(",
        -5.626043533199189
      ],
      [
        ":",
        -5.674643339072251
      ],
      [
        "ed",
        -5.675035493625499
      ],
      [
        "▁for",
        -5.699506873880749
      ],
      [
        "▁that",
        -5.777031850737799
      ],
      [
        "s,",
        -5.940503527636027
      ],
      [
        "▁can",
        -5.943526556412916
      ],
      [
        "▁be",
        -5.956499810237771
      ],
      [
        "▁or",
        -5.961390759611588
      ],
      [
        "▁The",
        -5.996970743310932
      ],
      [
        "▁with",
        -6.021891944772332
      ],
      [
        "y",
        -6.054660926677469
      ],
      [
        "▁on",
        -6.160161828047528
      ],
      [
        "▁it",
        -6.18886557213863
      ],
      [
        "▁as",
        -6.214800901709909
      ],
      [
        "▁are",
        -6.2507527775444895
      ],
      [
        "s.",
        -6.25422069107349
      ],
      [
        "e",
        -6.257510016929871
      ],
      [
        "▁-",
        -6.320326275979079
      ],
      [
        "d",
        -6.328656692682932
      ],
      [
        "▁ပ္ဍဲ",
        -6.330776888111446
      ],
      [
        "ကဵု",
        -6.376306916151622
      ],
      [
        "▁an",
        -6.383631363342108
      ],
      [
        "ly",
        -6.406265262377525
      ],
      [
        "▁မ",
        -6.423883810238987
      ],
      [
        "▁ကေုာံ",
        -6.436508967134747
      ],
      [
        "▁=",
        -6.466074151490554
      ],
      [
        "ir",
        -6.485722525893127
      ],
      [
        "▁you",
        -6.501502377021318
      ],
      [
        "▁by",
        -6.602864419441593
      ],
      [
        "မ္ဂး",
        -6.604554513457931
      ],
      [
        "▁A",
        -6.63740790093326
      ],
      [
        "▁your",
        -6.6471344215624875
      ],
      [
        "ရ၊",
        -6.651666046189277
      ],
      [
        "မ",
        -6.656400720452279
      ],
      [
        "-",
        -6.662266912509864
      ],
      [
        "'s",
        -6.756489271451764
      ],
      [
        "ရ",
        -6.77665148626509
      ],
      [
        "from",
        -6.792477408501089
      ],
      [
        "\"",
        -6.809750521965668
      ],
      [
        "▁I",
        -6.8325134355823565
      ],
      [
        "This",
        -6.842904566149867
      ],
      [
        "(n)",
        -6.852318825430762
      ],
      [
        "လေဝ်",
        -6.89307480711866
      ],
      [
        "▁have",
        -6.91392238536195
      ],
      [
        "al",
        -6.939285092074359
      ],
      [
        "ဝွံ",
        -6.961126688517087
      ],
      [
        "uch",
        -6.997486868381218
      ],
      [
        "ကီု",
        -6.9988653301384325
      ],
      [
        "▁ဒှ်",
        -7.011384728094038
      ],
      [
        "▁“",
        -7.015898582969982
      ],
      [
        "▁နကဵု",
        -7.092607247941125
      ],
      [
        "▁more",
        -7.10861221941051
      ],
      [
        "▁\"",
        -7.118242840935883
      ],
      [
        "တံ",
        -7.13031866981955
      ],
      [
        "er",
        -7.136848164497755
      ],
      [
        "▁was",
        -7.15341929211351
      ],
      [
        "လဝ်",
        -7.154762981539271
      ],
      [
        "▁In",
        -7.168822482880463
      ],
      [
        "▁help",
        -7.169657143335122
      ],
      [
        "တအ်",
        -7.177592252875096
      ],
      [
        "(v)",
        -7.200879436760486
      ],
      [
        "▁this",
        -7.201074130905612
      ],
      [
        "အာ",
        -7.2147313217222795
      ],
      [
        "n",
        -7.2345970888832785
      ],
      [
        "which",
        -7.239798997951741
      ],
      [
        "\t(n)",
        -7.245263934406671
      ],
      [
        "▁ရဴဝွံ",
        -7.253478534527558
      ],
      [
        "▁data",
        -7.258373241310517
      ],
      [
        "▁S",
        -7.262763704957193
      ],
      [
        "”",
        -7.269199978290603
      ],
      [
        "f",
        -7.276509771613416
      ],
      [
        "▁has",
        -7.282877403042521
      ],
      [
        "t",
        -7.29011761249679
      ],
      [
        "(",
        -7.292662925423766
      ],
      [
        "en",
        -7.294387862009568
      ],
      [
        "မွဲ",
        -7.295066564471782
      ],
      [
        "es",
        -7.298425831235253
      ],
      [
        "▁1.",
        -7.311948132650601
      ],
      [
        "▁use",
        -7.312379839774419
      ],
      [
        "▁2.",
        -7.3157740426943665
      ],
      [
        "▁ဒး",
        -7.342946726603609
      ],
      [
        "▁make",
        -7.351767719033683
      ],
      [
        "lso",
        -7.353150670034957
      ],
      [
        "▁w",
        -7.358465975300449
      ],
      [
        "ကို",
        -7.362483463454973
      ],
      [
        "▁other",
        -7.36558923488456
      ],
      [
        "▁သွက်ဂွံ",
        -7.36915597180735
      ],
      [
        "▁3.",
        -7.376583644812293
      ],
      [
        "▁ညး",
        -7.378151585104318
      ],
      [
        "?",
        -7.388197058423451
      ],
      [
        "▁one",
        -7.389918183817862
      ],
      [
        "▁at",
        -7.403314405689764
      ],
      [
        "▁not",
        -7.405890836700484
      ],
      [
        "▁It",
        -7.412086185025178
      ],
      [
        "▁ပွမ",
        -7.423399321767327
      ],
      [
        "သည်။",
        -7.426494739581866
      ],
      [
        "\tn.",
        -7.434747711844365
      ],
      [
        "▁နူ",
        -7.451830744152893
      ],
      [
        "▁မၞိဟ်",
        -7.453747951713714
      ],
      [
        "▁time",
        -7.458855913466937
      ],
      [
        "▁up",
        -7.459113075092141
      ],
      [
        "▁about",
        -7.46900374653889
      ],
      [
        "▁into",
        -7.481464327042401
      ],
      [
        "က",
        -7.497224469016729
      ],
      [
        "ဒၟံၚ်",
        -7.513673508642631
      ],
      [
        "▁C",
        -7.516611026928144
      ],
      [
        "▁သၞာံ",
        -7.520212578412524
      ],
      [
        "▁will",
        -7.525366010122834
      ],
      [
        "▁ကဵု",
        -7.528670856679506
      ],
      [
        "used",
        -7.539202971002204
      ],
      [
        "▁ပ္ဍဲကဵု",
        -7.542530847123741
      ],
      [
        "▁ဂှ်",
        -7.548640770140022
      ],
      [
        "▁new",
        -7.549336485020582
      ],
      [
        "▁ပ",
        -7.552128670184041
      ],
      [
        "▁sentence",
        -7.555241032724512
      ],
      [
        ".]",
        -7.558665036784172
      ],
      [
        "▁ကု",
        -7.575421882909346
      ],
      [
        "▁ဂွံ",
        -7.579785910065491
      ],
      [
        "▁ဍေံ",
        -7.602787870003198
      ],
      [
        "▁4.",
        -7.608868687843973
      ],
      [
        "▁could",
        -7.611802345596912
      ],
      [
        "ဂမၠိုၚ်",
        -7.617047407488307
      ],
      [
        "able",
        -7.628850588620338
      ],
      [
        "ould",
        -7.6302387421796105
      ],
      [
        "▁all",
        -7.631654233023468
      ],
      [
        "▁two",
        -7.64588893963535
      ],
      [
        "▁over",
        -7.649716729205416
      ],
      [
        "▁them",
        -7.655674309844102
      ],
      [
        "a",
        -7.665264124954511
      ],
      [
        "▁her",
        -7.667267422301334
      ],
      [
        "▁we",
        -7.66884562548538
      ],
      [
        "မံၚ်",
        -7.676519030620554
      ],
      [
        "r",
        -7.6770887825470115
      ],
      [
        "▁un",
        -7.683204997931771
      ],
      [
        "▁ဂကောံ",
        -7.683540662567767
      ],
      [
        "[id]",
        -7.685451210059657
      ],
      [
        "▁following",
        -7.688344105152165
      ],
      [
        "▁ဒဒှ်မ",
        -7.690881470575659
      ],
      [
        "▁provide",
        -7.702437239227484
      ],
      [
        "using",
        -7.71284001585204
      ],
      [
        "▁5.",
        -7.727954571434379
      ],
      [
        "▁||",
        -7.731376108504495
      ],
      [
        "▁through",
        -7.733781423948287
      ],
      [
        "▁ဟွံ",
        -7.738514959664204
      ],
      [
        "ညး",
        -7.741651112070098
      ],
      [
        "our",
        -7.758868827536791
      ],
      [
        "▁၂။",
        -7.774235430706568
      ],
      [
        "ဏံ",
        -7.775738588656676
      ],
      [
        "▁AI",
        -7.776584688397659
      ],
      [
        "▁c",
        -7.782445073175387
      ],
      [
        "▁need",
        -7.785041332835377
      ],
      [
        "▁D",
        -7.787135298830254
      ],
      [
        "ဂွံ",
        -7.7898344623337685
      ],
      [
        "အ",
        -7.795460539582569
      ],
      [
        "တံဂှ်",
        -7.798631213958123
      ],
      [
        "s:",
        -7.801627942503709
      ],
      [
        "▁နွံ",
        -7.817979366604796
      ],
      [
        "\t",
        -7.819457674168341
      ],
      [
        "▁way",
        -7.820228134406561
      ],
      [
        "\t(v)",
        -7.820585049065313
      ],
      [
        "စ",
        -7.821178891757352
      ],
      [
        "its",
        -7.826640050704965
      ],
      [
        "▁ဟိုတ်နူ",
        -7.831707729848784
      ],
      [
        "▁do",
        -7.832783120206775
      ],
      [
        "▁information",
        -7.833666337754833
      ],
      [
        "▁သွက်",
        -7.835831157276379
      ],
      [
        "between",
        -7.838388902943169
      ],
      [
        "▁his",
        -7.83923669534755
      ],
      [
        "given",
        -7.84105485773072
      ],
      [
        "▁နူကဵု",
        -7.843237206803291
      ],
      [
        "▁may",
        -7.852140510959709
      ],
      [
        "▁but",
        -7.853229957702373
      ],
      [
        "သည်",
        -7.854184572575996
      ],
      [
        "se",
        -7.8707022823943085
      ],
      [
        "ကၠုၚ်",
        -7.873896391450309
      ],
      [
        "▁any",
        -7.87419060495219
      ],
      [
        "▁work",
        -7.875217484554156
      ],
      [
        "▁like",
        -7.883321904107351
      ],
      [
        "၍",
        -7.893042318772011
      ],
      [
        "▁E",
        -7.8998570573833575
      ],
      [
        "▁သာ်ဝွံ",
        -7.901374287929501
      ],
      [
        "▁people",
        -7.901860009117133
      ],
      [
        "▁မဒှ်",
        -7.90589106069371
      ],
      [
        "ပ",
        -7.906719937290214
      ],
      [
        "ပ္ဍဲ",
        -7.919454406022201
      ],
      [
        "တအ်ဂှ်",
        -7.922339584984442
      ],
      [
        "▁|",
        -7.924445233330728
      ],
      [
        "ရောၚ်",
        -7.925209445749905
      ],
      [
        "မန်",
        -7.927135654298512
      ],
      [
        "while",
        -7.938197098060112
      ],
      [
        "▁there",
        -7.939824352425095
      ],
      [
        "▁he",
        -7.940863660427766
      ],
      [
        "▁out",
        -7.942870555725971
      ],
      [
        "သော",
        -7.944452315463677
      ],
      [
        "when",
        -7.9446332542230795
      ],
      [
        "▁အ",
        -7.949561777919872
      ],
      [
        "ous",
        -7.950378750873657
      ],
      [
        "each",
        -7.953182413188081
      ],
      [
        "▁take",
        -7.967111505569482
      ],
      [
        "▁how",
        -7.968057244605259
      ],
      [
        "▁where",
        -7.968230712264344
      ],
      [
        "▁some",
        -7.9684151361551905
      ],
      [
        "ဇကု",
        -7.9804291586167455
      ],
      [
        "▁so",
        -7.982260216112994
      ],
      [
        "▁learning",
        -7.986185877760937
      ],
      [
        "▁who",
        -7.987266217849136
      ],
      [
        "m",
        -7.987657254154049
      ],
      [
        "▁[",
        -8.001873616308641
      ],
      [
        "ဒး",
        -8.019613627346228
      ],
      [
        "▁customer",
        -8.022490481198192
      ],
      [
        "had",
        -8.030036969111045
      ],
      [
        "▁include",
        -8.033443558944759
      ],
      [
        "▁energy",
        -8.034136045929737
      ],
      [
        "▁list",
        -8.034371599474945
      ],
      [
        "▁if",
        -8.035630764881487
      ],
      [
        "ဇၞော်",
        -8.039013629911196
      ],
      [
        "▁system",
        -8.039786238096989
      ],
      [
        "၏။",
        -8.04076220413122
      ],
      [
        "▁important",
        -8.041925124813467
      ],
      [
        "/",
        -8.047691959571711
      ],
      [
        "▁water",
        -8.050645860159054
      ],
      [
        "▁world",
        -8.051806142257274
      ],
      [
        "သ",
        -8.064739742009232
      ],
      [
        "ဍေံ",
        -8.067018891940949
      ],
      [
        "▁reduce",
        -8.069343326556286
      ],
      [
        "အိုတ်ရ။",
        -8.072557480137
      ],
      [
        "▁most",
        -8.074219740278902
      ],
      [
        "ဂှ်လေဝ်",
        -8.07671543981761
      ],
      [
        "ရောၚ်။",
        -8.077713567761462
      ],
      [
        "▁+",
        -8.080416881690812
      ],
      [
        "h",
        -8.08210224656942
      ],
      [
        "▁improve",
        -8.087737522222502
      ],
      [
        "▁create",
        -8.09321902831814
      ],
      [
        "ရ၊၊",
        -8.097893049212336
      ],
      [
        "▁number",
        -8.12325492387619
      ],
      [
        "):",
        -8.123763194237688
      ],
      [
        "တှေ်",
        -8.12887563068236
      ],
      [
        "ic",
        -8.13655765751798
      ],
      [
        "▁သီု",
        -8.136974119801808
      ],
      [
        "▁different",
        -8.138119943612693
      ],
      [
        "▁အဲ",
        -8.139309045907755
      ],
      [
        ")။",
        -8.145236242582337
      ],
      [
        "▁ပရေင်",
        -8.147511739277986
      ],
      [
        "မၞိဟ်",
        -8.152903602014261
      ],
      [
        "တဴ",
        -8.15491552555101
      ],
      [
        "▁process",
        -8.156478915454548
      ],
      [
        "မ္ဂး၊",
        -8.161040132198885
      ],
      [
        "တ",
        -8.161605946692482
      ],
      [
        "▁she",
        -8.162322125476765
      ],
      [
        "▁ဍုင်",
        -8.166068179217802
      ],
      [
        "▁How",
        -8.172171589808388
      ],
      [
        "▁One",
        -8.174816338621149
      ],
      [
        ")၊",
        -8.181065541183356
      ],
      [
        "Here",
        -8.184505712192886
      ],
      [
        "အိုတ်ရ၊",
        -8.18508597320864
      ],
      [
        "▁example",
        -8.187663443951669
      ],
      [
        "▁life",
        -8.196972297699046
      ],
      [
        "▁should",
        -8.21264293971505
      ],
      [
        "▁ပရေၚ်",
        -8.21902915892961
      ],
      [
        "ကေတ်",
        -8.219288928929744
      ],
      [
        "'",
        -8.219974199485467
      ],
      [
        "▁first",
        -8.221724973855014
      ],
      [
        "▁language",
        -8.223326189313825
      ],
      [
        "▁Re",
        -8.228222425679466
      ],
      [
        "▁p",
        -8.22900148405907
      ],
      [
        "▁m",
        -8.229866182341587
      ],
      [
        "many",
        -8.232112237375603
      ],
      [
        "▁re",
        -8.23279770287647
      ],
      [
        "စိုတ်",
        -8.23335591253172
      ],
      [
        "ဟီုရ။",
        -8.23610880644586
      ],
      [
        "ce",
        -8.2363880182008
      ],
      [
        "မှ",
        -8.239230244151699
      ],
      [
        "ဂမၠိုင်",
        -8.23958501631237
      ],
      [
        "ကီု၊",
        -8.241228278203744
      ],
      [
        "▁what",
        -8.244140817261982
      ],
      [
        "ive",
        -8.244200193355232
      ],
      [
        "making",
        -8.245402715222882
      ],
      [
        "ဒၟံင်",
        -8.245988783239811
      ],
      [
        "▁ယွံခမဳတအ်",
        -8.247100363623396
      ],
      [
        "▁B",
        -8.247353115838454
      ],
      [
        "▁6.",
        -8.252032349927013
      ],
      [
        "ကီုလေဝ်",
        -8.253733477985955
      ],
      [
        "ဟွံ",
        -8.258425358016101
      ],
      [
        "’s",
        -8.262458739452265
      ],
      [
        "ဒှ်",
        -8.26941884022981
      ],
      [
        "st",
        -8.272221640746263
      ],
      [
        "မာန်",
        -8.281603081926779
      ],
      [
        "’",
        -8.283226365869792
      ],
      [
        "နူ",
        -8.28446684324251
      ],
      [
        "▁than",
        -8.288413498564674
      ],
      [
        "▁1",
        -8.291332247786457
      ],
      [
        "ဂှ်တုဲ",
        -8.29337473082511
      ],
      [
        "▁algorithm",
        -8.295671223993258
      ],
      [
        "▁set",
        -8.301948487713915
      ],
      [
        "▁က",
        -8.30595380225873
      ],
      [
        "အဲ",
        -8.306681924146195
      ],
      [
        "▁user",
        -8.309907301002127
      ],
      [
        "▁P",
        -8.310082068838126
      ],
      [
        "ly,",
        -8.311842492590436
      ],
      [
        "▁နာဲ",
        -8.313362344951061
      ],
      [
        "▁large",
        -8.31697082997239
      ],
      [
        "▁[C",
        -8.318394369513323
      ],
      [
        "▁နဒဒှ်",
        -8.319280405374885
      ],
      [
        "▁model",
        -8.319313530908797
      ],
      [
        "ပိုဲ",
        -8.321535531444102
      ],
      [
        "▁Generat",
        -8.334978821294403
      ],
      [
        "▁b",
        -8.336496311814148
      ],
      [
        "▁find",
        -8.337025306276132
      ],
      [
        "▁As",
        -8.337055549033598
      ],
      [
        "▁technology",
        -8.337317839881376
      ],
      [
        "▁experience",
        -8.342973289202844
      ],
      [
        "လ",
        -8.343831742372558
      ],
      [
        "o",
        -8.343929329186354
      ],
      [
        "including",
        -8.345091951298683
      ],
      [
        "ထောံ",
        -8.346118165388885
      ],
      [
        "▁text",
        -8.347212126635933
      ],
      [
        "▁impact",
        -8.348848513110914
      ],
      [
        "▁On",
        -8.352080955997774
      ],
      [
        "▁social",
        -8.355332792799539
      ],
      [
        "Create",
        -8.361468592353434
      ],
      [
        "often",
        -8.36434861098315
      ],
      [
        "▁ဒၞာဲ",
        -8.36829457662098
      ],
      [
        "▁3",
        -8.368927849080608
      ],
      [
        "▁2",
        -8.369308436084854
      ],
      [
        "ကီုရ။",
        -8.369688241090863
      ],
      [
        "တိုန်",
        -8.371931150408491
      ],
      [
        "▁၁၉",
        -8.379489724289826
      ],
      [
        "▁increase",
        -8.380075868441903
      ],
      [
        "နှင့်",
        -8.386340610660854
      ],
      [
        "တိ",
        -8.389179280555775
      ],
      [
        "were",
        -8.389603257690176
      ],
      [
        "▁တၠ",
        -8.39113203659428
      ],
      [
        "]",
        -8.391694576341807
      ],
      [
        "▁food",
        -8.393253145928547
      ],
      [
        "▁health",
        -8.39731334550721
      ],
      [
        "ဍာ်",
        -8.409185505136106
      ],
      [
        "ပရေၚ်ဍုၚ်ကွာန်",
        -8.4092392370794
      ],
      [
        "▁high",
        -8.419233293273521
      ],
      [
        "▁being",
        -8.419763646605881
      ],
      [
        "နွံ",
        -8.421508105370457
      ],
      [
        "▁both",
        -8.424756319727837
      ],
      [
        "▁For",
        -8.426143670654355
      ],
      [
        "▁ဘာ",
        -8.426501210847938
      ],
      [
        "ညိ",
        -8.42824087682772
      ],
      [
        "ဂ",
        -8.429591033256273
      ],
      [
        "ဟေၚ်",
        -8.430105444726083
      ],
      [
        "ing,",
        -8.431531505567092
      ],
      [
        "▁ယဝ်ရ",
        -8.432880125011865
      ],
      [
        "(adj)",
        -8.434519126125657
      ],
      [
        "▁t",
        -8.43484980218825
      ],
      [
        "▁G",
        -8.441152436771496
      ],
      [
        "▁small",
        -8.442092559700402
      ],
      [
        "▁potential",
        -8.444293799586312
      ],
      [
        "▁form",
        -8.44928737919451
      ],
      [
        "▁T",
        -8.454829801238061
      ],
      [
        "▁day",
        -8.456857808283672
      ],
      [
        "ion",
        -8.460340021603189
      ],
      [
        "▁change",
        -8.46115319994353
      ],
      [
        "▁ခမဳ",
        -8.463636710799346
      ],
      [
        "▁What",
        -8.466436134561539
      ],
      [
        "▁long",
        -8.46670862980525
      ],
      [
        "▁area",
        -8.467434002256445
      ],
      [
        "ဂှ်ရ",
        -8.467695951821957
      ],
      [
        "▁R",
        -8.467963294292051
      ],
      [
        "▁5",
        -8.470952624922315
      ],
      [
        "▁down",
        -8.472236026596265
      ],
      [
        "these",
        -8.476252461301888
      ],
      [
        "▁involve",
        -8.47640776178245
      ],
      [
        "▁န",
        -8.47820375016064
      ],
      [
        "▁F",
        -8.484193092609054
      ],
      [
        "▁{",
        -8.484481785735566
      ],
      [
        "▁three",
        -8.486760385208322
      ],
      [
        "ကျာ်တြဲ",
        -8.487647086353387
      ],
      [
        "ကာ",
        -8.48775247948523
      ],
      [
        "▁ယွံ",
        -8.488161896753079
      ],
      [
        "▁ဝွံ",
        -8.492929986969473
      ],
      [
        "\tadj",
        -8.495598139484015
      ],
      [
        "▁ဂကူ",
        -8.49873411215161
      ],
      [
        "▁**",
        -8.50166152373677
      ],
      [
        "▁us",
        -8.501817559016446
      ],
      [
        "ဟွံသေင်မ္ဂး",
        -8.501893441574985
      ],
      [
        "▁allow",
        -8.502136305894956
      ],
      [
        "▁၁၃",
        -8.50324030678254
      ],
      [
        "▁ဗော်",
        -8.50327791225743
      ],
      [
        "▁specific",
        -8.50347901935864
      ],
      [
        "▁အာ",
        -8.50469842378867
      ],
      [
        "▁good",
        -8.506382792700148
      ],
      [
        "▁human",
        -8.507491335344104
      ],
      [
        "▁ဆဂး",
        -8.507595708646372
      ],
      [
        "▁He",
        -8.510068995291585
      ],
      [
        "▁ကာလ",
        -8.510487916294384
      ],
      [
        "ဏအ်",
        -8.510981435513488
      ],
      [
        "▁သကဵု",
        -8.51247120623369
      ],
      [
        "ဟာ",
        -8.51381565136838
      ],
      [
        "▁support",
        -8.513940832969594
      ],
      [
        "ies",
        -8.514396670362888
      ],
      [
        "၏",
        -8.516400199956333
      ],
      [
        "▁result",
        -8.5182067945056
      ],
      [
        "▁my",
        -8.518332431659031
      ],
      [
        "▁common",
        -8.519399039702522
      ],
      [
        "ed,",
        -8.51991405250752
      ],
      [
        "▁ၜိုတ်",
        -8.524798300815082
      ],
      [
        "i",
        -8.530029164881151
      ],
      [
        "▁M",
        -8.532867008642796
      ],
      [
        "▁အကြာ",
        -8.53325639443111
      ],
      [
        "▁significant",
        -8.533615420965594
      ],
      [
        "▁product",
        -8.534673854706732
      ],
      [
        "▁လတူ",
        -8.536528187087228
      ],
      [
        "made",
        -8.54065173322019
      ],
      [
        "w",
        -8.544049565977353
      ],
      [
        "▁‘",
        -8.544761278052782
      ],
      [
        "▁value",
        -8.546305941873383
      ],
      [
        "▁words",
        -8.547042916509403
      ],
      [
        "▁7.",
        -8.551016695045035
      ],
      [
        "တေံ",
        -8.552180705941566
      ],
      [
        "▁company",
        -8.554877293176236
      ],
      [
        "▁ပိုဲ",
        -8.555585389155295
      ],
      [
        "န",
        -8.557406862245749
      ],
      [
        "▁power",
        -8.55795082431978
      ],
      [
        "ed.",
        -8.56280587662746
      ],
      [
        "▁light",
        -8.566926159390695
      ],
      [
        "th",
        -8.568499320762264
      ],
      [
        "▁get",
        -8.569482162795154
      ],
      [
        "▁word",
        -8.569896257444947
      ],
      [
        "၃။",
        -8.570638497032835
      ],
      [
        "`",
        -8.571214378086523
      ],
      [
        "▁ပ္ဍဲသၞာံ",
        -8.572855619796767
      ],
      [
        "ဒ",
        -8.573981771946759
      ],
      [
        "▁environment",
        -8.574113545440763
      ],
      [
        "ကမၠောန်",
        -8.575452479154588
      ],
      [
        "▁ဟီု",
        -8.576338845307355
      ],
      [
        "▁name",
        -8.577160244987965
      ],
      [
        "▁website",
        -8.579440703194459
      ],
      [
        "▁`",
        -8.579548939511916
      ],
      [
        "▁person",
        -8.580693587662125
      ],
      [
        "▁ကောန်",
        -8.58691326229943
      ],
      [
        "▁right",
        -8.58861537280907
      ],
      [
        "▁hand",
        -8.5894130290089
      ],
      [
        "ဏာ",
        -8.589656344319742
      ],
      [
        ";",
        -8.5938876217905
      ],
      [
        "ဗ",
        -8.595377869666951
      ],
      [
        "ဍုၚ်",
        -8.597168331076892
      ],
      [
        "▁natural",
        -8.599096846741254
      ],
      [
        ":**",
        -8.600839764866175
      ],
      [
        "▁To",
        -8.602361879552745
      ],
      [
        "ever,",
        -8.602885594055342
      ],
      [
        "!",
        -8.605616572192737
      ],
      [
        "▁great",
        -8.606023445791136
      ],
      [
        "▁type",
        -8.606469218788384
      ],
      [
        "▁access",
        -8.60687950755263
      ],
      [
        "▁လိက်",
        -8.607503530928254
      ],
      [
        "▁စ",
        -8.609769477441397
      ],
      [
        "▁f",
        -8.612557546803732
      ],
      [
        "▁home",
        -8.6130005714278
      ],
      [
        "▁ကမၠောန်",
        -8.616284327559557
      ],
      [
        "▁ဗီု",
        -8.616549410711059
      ],
      [
        "▁content",
        -8.619336776459129
      ],
      [
        "▁sever",
        -8.621962001778073
      ],
      [
        "▁me",
        -8.623154573530684
      ],
      [
        "▁design",
        -8.623378539511878
      ],
      [
        "▁even",
        -8.62399420986975
      ],
      [
        "ဏံဂှ်",
        -8.624726941014924
      ],
      [
        "▁media",
        -8.624805483133043
      ],
      [
        "▁computer",
        -8.627476220994334
      ],
      [
        "▁then",
        -8.629374823780735
      ],
      [
        "▁business",
        -8.63127766295348
      ],
      [
        "▁back",
        -8.633522332402887
      ],
      [
        "▁well",
        -8.635015289979028
      ],
      [
        "known",
        -8.638888617005493
      ],
      [
        "▁function",
        -8.639388579359624
      ],
      [
        "ဂကူ",
        -8.641224620700335
      ],
      [
        "around",
        -8.64493443499681
      ],
      [
        "▁တအ်",
        -8.646069993521964
      ],
      [
        "ကၠုင်",
        -8.646835136995502
      ],
      [
        "▁order",
        -8.648565904227222
      ],
      [
        "ability",
        -8.648739104644301
      ],
      [
        "▁team",
        -8.650062719150277
      ],
      [
        "▁machine",
        -8.650085901375492
      ],
      [
        "ကျာ်",
        -8.652047336224777
      ],
      [
        "based",
        -8.652838801590892
      ],
      [
        "▁learn",
        -8.653636924250545
      ],
      [
        "▁cost",
        -8.655154752915763
      ],
      [
        "▁customers",
        -8.65644612443859
      ],
      [
        "ဂကောံ",
        -8.659564372306223
      ],
      [
        "ပၠန်",
        -8.660044847847484
      ],
      [
        "▁Give",
        -8.66243051013446
      ],
      [
        "▁wh",
        -8.662727156967406
      ],
      [
        "ensure",
        -8.669033602875244
      ],
      [
        "▁service",
        -8.669901485204441
      ],
      [
        "ဟီု",
        -8.671847066246677
      ],
      [
        "အိုတ်",
        -8.673703068240378
      ],
      [
        "▁no",
        -8.676657763345158
      ],
      [
        "▁သ",
        -8.68420403528116
      ],
      [
        "They",
        -8.688414503046058
      ],
      [
        "▁tasks",
        -8.69042044999572
      ],
      [
        "လုပ်",
        -8.691039114544598
      ],
      [
        "▁development",
        -8.69120433829497
      ],
      [
        "▁provid",
        -8.69927360250415
      ],
      [
        "▁show",
        -8.703525424413078
      ],
      [
        "ၜါ",
        -8.704647265694607
      ],
      [
        "online",
        -8.706637865316461
      ],
      [
        "(adv)",
        -8.708161133377004
      ],
      [
        "n't",
        -8.711831758464939
      ],
      [
        "▁#",
        -8.718602042399004
      ],
      [
        "With",
        -8.720022176822535
      ],
      [
        "▁မွဲ",
        -8.720490866718432
      ],
      [
        "▁better",
        -8.721025944054176
      ],
      [
        "▁car",
        -8.721147723502481
      ],
      [
        "▁vari",
        -8.721177792124955
      ],
      [
        "▁store",
        -8.721698932233712
      ],
      [
        "း",
        -8.721699856167897
      ],
      [
        "ကောန်",
        -8.722733144305725
      ],
      [
        "▁By",
        -8.723690464178109
      ],
      [
        "သာ",
        -8.72467200768544
      ],
      [
        "▁အတိုၚ်",
        -8.733039712717655
      ],
      [
        "▁ညးတအ်",
        -8.735300020080146
      ],
      [
        "▁တ္ၚဲ",
        -8.737354305645306
      ],
      [
        "▁g",
        -8.739829005694482
      ],
      [
        "▁story",
        -8.73986714055727
      ],
      [
        "▁You",
        -8.74251028112648
      ],
      [
        "▁together",
        -8.744353333563893
      ],
      [
        "ကၠောန်",
        -8.745628811976037
      ],
      [
        "မိ",
        -8.746208573613274
      ],
      [
        "▁မိ",
        -8.749378711712723
      ],
      [
        "ကၠေံ",
        -8.750540716984727
      ],
      [
        "▁step",
        -8.75283123025766
      ],
      [
        "▁possible",
        -8.753811253688088
      ],
      [
        "all",
        -8.754036356278835
      ],
      [
        "▁key",
        -8.754848442017515
      ],
      [
        "Write",
        -8.755515569133575
      ],
      [
        "▁place",
        -8.757132069119397
      ],
      [
        "တာ",
        -8.758392480192258
      ],
      [
        "ခ",
        -8.758468501854955
      ],
      [
        "ful",
        -8.759877565769566
      ],
      [
        "▁de",
        -8.760606285634577
      ],
      [
        "▁offer",
        -8.762050354943586
      ],
      [
        "▁Over",
        -8.763550553824775
      ],
      [
        "▁ဟိုတ်ဂှ်ရ",
        -8.763556428747002
      ],
      [
        "ၚ်",
        -8.771048811518613
      ],
      [
        "est",
        -8.772592834468174
      ],
      [
        "escribe",
        -8.772671759102888
      ],
      [
        "▁မၞုံကဵု",
        -8.775787064077605
      ],
      [
        "▁market",
        -8.776559587852253
      ],
      [
        "▁software",
        -8.77801362878273
      ],
      [
        "**",
        -8.778508368498148
      ],
      [
        "▁see",
        -8.780260827472567
      ],
      [
        "▁K",
        -8.782141872388372
      ],
      [
        "ထဝ်",
        -8.783704023750161
      ],
      [
        "လိက်",
        -8.784238161906156
      ],
      [
        "le",
        -8.786722354052674
      ],
      [
        "ပၞာန်",
        -8.787562017885325
      ],
      [
        "▁ကွာန်",
        -8.787940500105453
      ],
      [
        "▁N",
        -8.788797247139277
      ],
      [
        "▁H",
        -8.79074704371735
      ],
      [
        "▁part",
        -8.792387727980135
      ],
      [
        "or",
        -8.793062650399548
      ],
      [
        "ပန်",
        -8.793364900301672
      ],
      [
        "▁keep",
        -8.793916414279646
      ],
      [
        "▁code",
        -8.795396865215565
      ],
      [
        "▁systems",
        -8.79541069357374
      ],
      [
        "▁input",
        -8.79577878552691
      ],
      [
        "▁main",
        -8.800030454704213
      ],
      [
        "▁ယဝ်",
        -8.800566442825444
      ],
      [
        "▁4",
        -8.801510027707657
      ],
      [
        "စုတ်",
        -8.801899072874932
      ],
      [
        "ပါ",
        -8.805098538563056
      ],
      [
        "▁features",
        -8.805129042065888
      ],
      [
        ".\"",
        -8.805440693899751
      ],
      [
        "ဘာ",
        -8.805454220358195
      ],
      [
        "▁own",
        -8.80572743411441
      ],
      [
        "▁အခိၚ်",
        -8.806055125948657
      ],
      [
        "်",
        -8.806240557438056
      ],
      [
        "▁event",
        -8.806448682233672
      ],
      [
        "▁L",
        -8.806932983809034
      ],
      [
        "ညိ။",
        -8.808488735411085
      ],
      [
        "▁idea",
        -8.809120446956642
      ],
      [
        "▁ဒေသ",
        -8.810572074292367
      ],
      [
        "▁wide",
        -8.811716343588573
      ],
      [
        "sure",
        -8.812623608270915
      ],
      [
        "▁သီုကဵု",
        -8.814914732260618
      ],
      [
        "▁reduc",
        -8.816528620110486
      ],
      [
        "▁အဓိက",
        -8.817765316561314
      ],
      [
        "ကု",
        -8.81898961272774
      ],
      [
        "▁plan",
        -8.820593661424251
      ],
      [
        "▁go",
        -8.824280308092368
      ],
      [
        "▁ကလိဂွံ",
        -8.825200285344453
      ],
      [
        "▁ညံၚ်ဂွံ",
        -8.825804429555353
      ],
      [
        "▁level",
        -8.82665116114501
      ],
      [
        "til",
        -8.827729654878379
      ],
      [
        "es,",
        -8.828074246548622
      ],
      [
        "n.",
        -8.830082681709264
      ],
      [
        "▁return",
        -8.830543634432837
      ],
      [
        "▁amount",
        -8.831021219335156
      ],
      [
        "ရော",
        -8.831189983448738
      ],
      [
        "identify",
        -8.831545871232933
      ],
      [
        "သၟိၚ်",
        -8.832452757808756
      ],
      [
        "▁ရဲ",
        -8.832814326499076
      ],
      [
        "out",
        -8.837023426109877
      ],
      [
        "all,",
        -8.837095770876157
      ],
      [
        "▁ညံၚ်",
        -8.84003915721474
      ],
      [
        "▁She",
        -8.84243816476451
      ],
      [
        "▁job",
        -8.842884822937238
      ],
      [
        "s)",
        -8.844488156239624
      ],
      [
        "▁before",
        -8.845746226050256
      ],
      [
        "▁We",
        -8.846376941920429
      ],
      [
        "k",
        -8.847891126586472
      ],
      [
        "▁ညးမ",
        -8.84978985983398
      ],
      [
        "တၟိ",
        -8.853954731408468
      ],
      [
        "ခိုဟ်",
        -8.85573881269384
      ],
      [
        "ရာ",
        -8.857638713241737
      ],
      [
        "▁၂",
        -8.857923416844184
      ],
      [
        "▁ဒဒှ်",
        -8.858957757110604
      ],
      [
        "There",
        -8.859551631741983
      ],
      [
        "c",
        -8.859643963649791
      ],
      [
        "▁best",
        -8.860125330241829
      ],
      [
        "▁10",
        -8.862251718755513
      ],
      [
        "▁positive",
        -8.866033367795822
      ],
      [
        "▁risk",
        -8.866056381466231
      ],
      [
        "ထ",
        -8.866582898836548
      ],
      [
        "▁consider",
        -8.866611954467484
      ],
      [
        "▁personal",
        -8.867405454774946
      ],
      [
        "▁call",
        -8.867655956982365
      ],
      [
        "▁lead",
        -8.868217699479096
      ],
      [
        "▁end",
        -8.869140069150294
      ],
      [
        "▁image",
        -8.870931512675705
      ],
      [
        "သွက်ဂွံ",
        -8.871598836907502
      ],
      [
        "▁i",
        -8.872226470130453
      ],
      [
        "▁share",
        -8.87362601743845
      ],
      [
        "▁လညာတ်",
        -8.87643197066356
      ],
      [
        "_",
        -8.876782055715292
      ],
      [
        "▁love",
        -8.878935676322522
      ],
      [
        "▁easi",
        -8.879086684257445
      ],
      [
        "ဗက်",
        -8.880631130092354
      ],
      [
        "▁just",
        -8.880692058849304
      ],
      [
        "ဂှ်ရ။",
        -8.880836314517717
      ],
      [
        "▁come",
        -8.883132142942866
      ],
      [
        "မံင်",
        -8.8860837351072
      ],
      [
        "without",
        -8.886725903722526
      ],
      [
        "▁strong",
        -8.888078399577164
      ],
      [
        "တှ်ေ",
        -8.89070298112907
      ],
      [
        "▁မပ္တံကဵု",
        -8.890871906575876
      ],
      [
        "▁အလဵုအသဳ",
        -8.895283131167178
      ],
      [
        "▁follow",
        -8.895679822559305
      ],
      [
        "လာ",
        -8.895743836972095
      ],
      [
        "▁သၟိၚ်",
        -8.895822309175294
      ],
      [
        "▁future",
        -8.896830179709248
      ],
      [
        "▁add",
        -8.897203886066453
      ],
      [
        "တဲ",
        -8.897409885694769
      ],
      [
        "ံ",
        -8.898716352866963
      ],
      [
        "▁term",
        -8.899301803687344
      ],
      [
        "▁must",
        -8.899416549063261
      ],
      [
        "ပရေၚ်",
        -8.90160479007648
      ],
      [
        "▁family",
        -8.90390076029134
      ],
      [
        "▁8.",
        -8.905595073877976
      ],
      [
        "ပညာ",
        -8.909445595471276
      ],
      [
        "▁cause",
        -8.910134975496122
      ],
      [
        "▁၃",
        -8.910156991435777
      ],
      [
        "▁နွံကဵု",
        -8.9113251729366
      ],
      [
        "\".",
        -8.911886860539814
      ],
      [
        "\t1",
        -8.91430543311465
      ],
      [
        "}",
        -8.916103244720954
      ],
      [
        "ဗီု",
        -8.917570556091363
      ],
      [
        "▁individuals",
        -8.92038617466719
      ],
      [
        "▁play",
        -8.920558739870973
      ],
      [
        "\t2",
        -8.921290441272216
      ],
      [
        "နကဵု",
        -8.922611788945046
      ],
      [
        "ရ)။",
        -8.923081691518515
      ],
      [
        "ဏောၚ်",
        -8.923596788701513
      ],
      [
        "▁air",
        -8.924521412370293
      ],
      [
        "သၟတ်",
        -8.926533740408198
      ],
      [
        "▁ဆက်",
        -8.92847898101771
      ],
      [
        "▁clear",
        -8.928483711453516
      ],
      [
        "သြန်",
        -8.928684122715742
      ],
      [
        "▁တုဲပၠန်",
        -8.929078563957088
      ],
      [
        "▁education",
        -8.929386656323508
      ],
      [
        "ပိ",
        -8.929392711702821
      ],
      [
        "▁communication",
        -8.93006236233892
      ],
      [
        "▁physical",
        -8.930336033713402
      ],
      [
        "ity",
        -8.930756135917086
      ],
      [
        "▁essential",
        -8.931950256773945
      ],
      [
        "▁green",
        -8.932043371569737
      ],
      [
        "▁live",
        -8.933161669830278
      ],
      [
        "ဗော်",
        -8.934687497409351
      ],
      [
        "▁ခ",
        -8.934762669120648
      ],
      [
        "▁understand",
        -8.93838393709279
      ],
      [
        "▁တ",
        -8.938779569621449
      ],
      [
        "▁(၂)",
        -8.93965706605591
      ],
      [
        "ဒေသ",
        -8.940089117680472
      ],
      [
        "▁သ္ဒး",
        -8.94147738077772
      ],
      [
        "▁resources",
        -8.944482658497455
      ],
      [
        "ကၠာ",
        -8.94466046427993
      ],
      [
        "▁သီုဖအိုတ်",
        -8.94479185594447
      ],
      [
        "တုန်",
        -8.944940166450031
      ],
      [
        "▁စပ်ကဵု",
        -8.947095682780962
      ],
      [
        "ဟ",
        -8.948152567289792
      ],
      [
        "▁ကၠောန်",
        -8.950485376406778
      ],
      [
        "▁goal",
        -8.951874648607905
      ],
      [
        "▁အရာ",
        -8.95312211832839
      ],
      [
        "▁develop",
        -8.954871321271117
      ],
      [
        "▁performance",
        -8.955258235454686
      ],
      [
        "▁ယဲ",
        -8.955389366457105
      ],
      [
        "y,",
        -8.955450804426459
      ],
      [
        "▁မနွံကဵု",
        -8.95593847713711
      ],
      [
        "only",
        -8.95616710570542
      ],
      [
        "▁range",
        -8.961624142725714
      ],
      [
        "▁benefits",
        -8.961744943602053
      ],
      [
        "▁products",
        -8.961946352840558
      ],
      [
        "▁sense",
        -8.96437043841981
      ],
      [
        "ကွာန်",
        -8.964526058176148
      ],
      [
        "ဟီုဂှ်",
        -8.965276159334216
      ],
      [
        "▁dur",
        -8.96657501995151
      ],
      [
        "▁၁",
        -8.970765913597603
      ],
      [
        "တုဲ၊",
        -8.971905957309463
      ],
      [
        "▁ဇကု",
        -8.972277485915203
      ],
      [
        "▁role",
        -8.975067157813154
      ],
      [
        "▁W",
        -8.9770156079341
      ],
      [
        "ရန်",
        -8.977303819571627
      ],
      [
        "▁businesses",
        -8.977317537845648
      ],
      [
        "▁him",
        -8.977448008236596
      ],
      [
        "▁complex",
        -8.977748047677018
      ],
      [
        "▁ပ္ဍဲအခိၚ်ဂှ်",
        -8.978525972874298
      ],
      [
        "always",
        -8.97975002105701
      ],
      [
        "▁focus",
        -8.980677470393939
      ],
      [
        "▁creat",
        -8.980788192733927
      ],
      [
        "များ",
        -8.982742982703636
      ],
      [
        "▁game",
        -8.984644041687528
      ],
      [
        "မွဲတၠ",
        -8.985647053551933
      ],
      [
        "means",
        -8.989216553543766
      ],
      [
        "▁public",
        -8.989651155698912
      ],
      [
        "မှာ",
        -8.989979846158771
      ],
      [
        "▁O",
        -8.990085429365013
      ],
      [
        "▁start",
        -8.990957294890174
      ],
      [
        "cause",
        -8.99131003982143
      ],
      [
        "within",
        -8.992564588692723
      ],
      [
        "ဖြင့်",
        -8.992968687435662
      ],
      [
        "▁tree",
        -8.995661617153832
      ],
      [
        "▁သၞောတ်",
        -8.9958133347644
      ],
      [
        "ဓဝ်",
        -8.996453380067617
      ],
      [
        "လ္တူ",
        -8.996853482003235
      ],
      [
        "န်",
        -8.99732971792259
      ],
      [
        "ဂွံတီကေတ်ရ။",
        -8.998403428089176
      ],
      [
        "▁ညံင်",
        -8.999312294681744
      ],
      [
        "▁same",
        -8.999406710607637
      ],
      [
        "▁behavior",
        -9.001797299531898
      ],
      [
        "ary",
        -9.002504651128733
      ],
      [
        "ically",
        -9.002874561321814
      ],
      [
        "▁၄",
        -9.002896897899856
      ],
      [
        "▁စဵုကဵု",
        -9.003494460222512
      ],
      [
        "become",
        -9.003524193613714
      ],
      [
        "re",
        -9.00618157241589
      ],
      [
        "▁(၃)",
        -9.006541277599165
      ],
      [
        "▁again",
        -9.00825497888149
      ],
      [
        "▁growth",
        -9.00902203668506
      ],
      [
        "▁sun",
        -9.00916196284758
      ],
      [
        "▁statement",
        -9.010429245125202
      ],
      [
        "▁five",
        -9.01291365386458
      ],
      [
        "▁reach",
        -9.013823586597486
      ],
      [
        "ဗြဴ",
        -9.015010179570409
      ],
      [
        "▁want",
        -9.020288899560612
      ],
      [
        "▁app",
        -9.021384055685175
      ],
      [
        "▁changes",
        -9.024930775606647
      ],
      [
        "▁found",
        -9.026317632514527
      ],
      [
        "သတ်",
        -9.026455156748462
      ],
      [
        "▁မၞုံ",
        -9.027953281455432
      ],
      [
        "တ္ၚဲ",
        -9.02804841615211
      ],
      [
        "ဒၞာဲ",
        -9.030115190780563
      ],
      [
        "▁ဍုၚ်",
        -9.030222284756931
      ],
      [
        "▁climate",
        -9.030634431644906
      ],
      [
        "▁represent",
        -9.034096163124453
      ],
      [
        "တွင်",
        -9.034587349116771
      ],
      [
        "ually",
        -9.035910729656575
      ],
      [
        "▁ဟွံဂွံ",
        -9.036181660008708
      ],
      [
        "စိုပ်",
        -9.037692399438935
      ],
      [
        "▁structure",
        -9.03857817053299
      ],
      [
        "summary",
        -9.038779091334103
      ],
      [
        "မတ်",
        -9.040314562848335
      ],
      [
        "ll",
        -9.040887758815515
      ],
      [
        "▁real",
        -9.041411342754309
      ],
      [
        "United",
        -9.041601649382427
      ],
      [
        "ဍုင်",
        -9.041753039095418
      ],
      [
        "ry",
        -9.043451274431042
      ],
      [
        "[Der.]",
        -9.045386973421751
      ],
      [
        "▁အပ္ဍဲ",
        -9.0485736693641
      ],
      [
        "▁x",
        -9.050374076632425
      ],
      [
        "▁issue",
        -9.051308040708172
      ],
      [
        "▁give",
        -9.053010996957992
      ],
      [
        "▁short",
        -9.053364243870018
      ],
      [
        "▁audience",
        -9.054881196221308
      ],
      [
        "▁heart",
        -9.055042329378901
      ],
      [
        "▁deep",
        -9.055777337621358
      ],
      [
        "▁email",
        -9.05601492469215
      ],
      [
        "▁ၜိုန်ရ",
        -9.056233880049545
      ],
      [
        "▁skills",
        -9.05637111918849
      ],
      [
        "in",
        -9.056962558991062
      ],
      [
        "▁under",
        -9.057669969159722
      ],
      [
        "▁Ad",
        -9.05808840398754
      ],
      [
        "▁လၟုဟ်",
        -9.058138287560109
      ],
      [
        "▁ဍာ်",
        -9.058532820314491
      ],
      [
        "▁နဲကဲ",
        -9.060056264377076
      ],
      [
        "▁challenge",
        -9.06036389933507
      ],
      [
        "တိတ်",
        -9.061447350320815
      ],
      [
        "▁(၁)",
        -9.062979698388634
      ],
      [
        "▁off",
        -9.063644998187643
      ],
      [
        "▁require",
        -9.064152359669032
      ],
      [
        "▁body",
        -9.064573006250196
      ],
      [
        "▁ဂ",
        -9.064979041509396
      ],
      [
        "▁Wh",
        -9.065813258415185
      ],
      [
        "▁students",
        -9.06831496510285
      ],
      [
        "▁လုပ်",
        -9.06856089264896
      ],
      [
        "တ်",
        -9.068922437949581
      ],
      [
        "▁ထို",
        -9.075343448955383
      ],
      [
        "ly.",
        -9.07652636246804
      ],
      [
        "▁*",
        -9.077805378318272
      ],
      [
        "▁years",
        -9.080286264948711
      ],
      [
        "▁marketing",
        -9.082357263130033
      ],
      [
        "▁၅",
        -9.082881618995614
      ],
      [
        "▁ဗွဲမဂၠိုင်",
        -9.08341097931198
      ],
      [
        "▁search",
        -9.084136298495935
      ],
      [
        "တက်",
        -9.085406084875341
      ],
      [
        "▁global",
        -9.08581898051357
      ],
      [
        "▁သ္ပ",
        -9.08675979412217
      ],
      [
        "▁services",
        -9.086837583136244
      ],
      [
        "▁စိုတ်",
        -9.089001224500452
      ],
      [
        "▁Name",
        -9.09106599736139
      ],
      [
        "▁feel",
        -9.091739951611862
      ],
      [
        "\tvt.",
        -9.093910867010708
      ],
      [
        "▁problem",
        -9.094276719732413
      ],
      [
        "us",
        -9.09429724532603
      ],
      [
        "less",
        -9.095390737541361
      ],
      [
        "နွံရ။",
        -9.095842153023867
      ],
      [
        "ဏီ",
        -9.095909470464884
      ],
      [
        "▁government",
        -9.095956290067164
      ],
      [
        "ညိ၊",
        -9.09597477931091
      ],
      [
        "▁effective",
        -9.097378994861177
      ],
      [
        "▁color",
        -9.09793090941448
      ],
      [
        "▁individual",
        -9.09836049132315
      ],
      [
        "▁every",
        -9.100074213506112
      ],
      [
        "▁side",
        -9.100866920225833
      ],
      [
        "b",
        -9.102553578620315
      ],
      [
        "▁article",
        -9.103863503689798
      ],
      [
        "▁Use",
        -9.104375165303878
      ],
      [
        "သ္ပ",
        -9.107494650512896
      ],
      [
        "နာဲ",
        -9.108727635312206
      ],
      [
        "ရုပ်",
        -9.109036595271345
      ],
      [
        "▁ဟိုတ်",
        -9.109253374567126
      ],
      [
        "▁typ",
        -9.11182735647277
      ],
      [
        "သွက်",
        -9.112035113919621
      ],
      [
        "an",
        -9.112761391658307
      ],
      [
        "▁control",
        -9.116663085215237
      ],
      [
        "▁maintain",
        -9.117319423860224
      ],
      [
        "ers",
        -9.118278085946312
      ],
      [
        "▁enjoy",
        -9.11855873121344
      ],
      [
        "▁something",
        -9.118623154040566
      ],
      [
        "▁Explain",
        -9.118654954260133
      ],
      [
        "wards",
        -9.119667917354477
      ],
      [
        "▁unique",
        -9.120558345589485
      ],
      [
        "▁city",
        -9.121654187041457
      ],
      [
        "▁open",
        -9.122400246914165
      ],
      [
        "▁prevent",
        -9.122435458124123
      ],
      [
        "▁field",
        -9.12451813817354
      ],
      [
        "▁research",
        -9.124673112182709
      ],
      [
        "အား",
        -9.12603298584771
      ],
      [
        "ဇာတ်",
        -9.128144372843563
      ],
      [
        "hose",
        -9.129589713324997
      ],
      [
        "▁after",
        -9.130093605678121
      ],
      [
        "▁ဒဒှ်ရ",
        -9.130281982145899
      ],
      [
        "▁action",
        -9.131334547625913
      ],
      [
        "▁source",
        -9.132036363640266
      ],
      [
        "▁တၞံ",
        -9.132244894981959
      ],
      [
        "▁address",
        -9.133296734384102
      ],
      [
        "▁အခိင်",
        -9.134217637968213
      ],
      [
        "▁လၟိဟ်",
        -9.135867637035526
      ],
      [
        "ဝ",
        -9.136135229280422
      ],
      [
        "=",
        -9.137369173938978
      ],
      [
        "အာယုက်",
        -9.139082678469244
      ],
      [
        "▁target",
        -9.139884780980747
      ],
      [
        "သၞာံ",
        -9.13993764351844
      ],
      [
        "▁ဆ",
        -9.144076895572947
      ],
      [
        "▁'",
        -9.1450676721307
      ],
      [
        "▁know",
        -9.145754721647922
      ],
      [
        "▁An",
        -9.146061265169003
      ],
      [
        "▁items",
        -9.146305400172604
      ],
      [
        "▁တဳလမၞုံပိုဉ်",
        -9.146811939616999
      ],
      [
        "▁စိုပ်",
        -9.14722101483684
      ],
      [
        "healthy",
        -9.147522024145774
      ],
      [
        "သီု",
        -9.147676918924924
      ],
      [
        "လောန်",
        -9.14830038518885
      ],
      [
        "▁space",
        -9.148517532367912
      ],
      [
        "▁ခမဳဂှ်",
        -9.152561029011668
      ],
      [
        "▁network",
        -9.15314276375252
      ],
      [
        "▁activities",
        -9.153465331137443
      ],
      [
        "တို့ကို",
        -9.153773934374442
      ],
      [
        "▁တၚ်",
        -9.154775998021947
      ],
      [
        "င်",
        -9.155469465884497
      ],
      [
        "▁Be",
        -9.155731162740835
      ],
      [
        "ဇ",
        -9.156999458128112
      ],
      [
        "တြေံ",
        -9.157053837243653
      ],
      [
        "▁\"The",
        -9.158836979564304
      ],
      [
        "▁financial",
        -9.160584474623477
      ],
      [
        "▁another",
        -9.160587873020646
      ],
      [
        "▁ညးတံ",
        -9.160771999151738
      ],
      [
        "▁group",
        -9.160853175603984
      ],
      [
        "ဂှ်တှေ်",
        -9.16440589243794
      ],
      [
        "ing.",
        -9.16470328344195
      ],
      [
        "x",
        -9.166296614722686
      ],
      [
        "▁look",
        -9.1666848097343
      ],
      [
        "▁9.",
        -9.167466175542565
      ],
      [
        "hoose",
        -9.16795899439498
      ],
      [
        "နာ",
        -9.16911609104171
      ],
      [
        "er,",
        -9.169765821760173
      ],
      [
        "▁others",
        -9.173253494159637
      ],
      [
        "▁ဗ",
        -9.173976723120234
      ],
      [
        "▁hard",
        -9.176154975320896
      ],
      [
        "စက်",
        -9.17959983965601
      ],
      [
        "▁does",
        -9.181238361329942
      ],
      [
        "▁အကာဲအရာ",
        -9.181768383930486
      ],
      [
        "▁equation",
        -9.181967996062248
      ],
      [
        "▁program",
        -9.182487942649574
      ],
      [
        "▁elements",
        -9.183924738392317
      ],
      [
        "▁top",
        -9.183990400038908
      ],
      [
        "▁သၚ်",
        -9.183996412993523
      ],
      [
        "▁depend",
        -9.184311884667892
      ],
      [
        "တုဲမ္ဂး",
        -9.187477039536034
      ],
      [
        "သ္ၚိ",
        -9.188762158611585
      ],
      [
        "Identify",
        -9.189078353705483
      ],
      [
        "▁gas",
        -9.189550697622689
      ],
      [
        "▁point",
        -9.189886959965943
      ],
      [
        "မာန်ရ။",
        -9.190817568187175
      ],
      [
        "▁popular",
        -9.1910211877051
      ],
      [
        "ness",
        -9.191423183484323
      ],
      [
        "▁carbon",
        -9.192392170632491
      ],
      [
        "▁stress",
        -9.193219949169226
      ],
      [
        "နေ",
        -9.193257442240238
      ],
      [
        "ညးတံ",
        -9.194036187552568
      ],
      [
        "Some",
        -9.194512733592331
      ],
      [
        "▁stay",
        -9.194635156316128
      ],
      [
        "▁project",
        -9.19504692270273
      ],
      [
        "▁book",
        -9.195668474693873
      ],
      [
        "ဘဝ",
        -9.196963123068652
      ],
      [
        "▁difficult",
        -9.19720869792625
      ],
      [
        "▁ကလေၚ်",
        -9.198888989644072
      ],
      [
        "က္ဍိုပ်",
        -9.199587538510634
      ],
      [
        "▁simple",
        -9.200269328539623
      ],
      [
        "ဂလာန်",
        -9.205178806399003
      ],
      [
        "▁ယၟု",
        -9.206092002649118
      ],
      [
        "▁numbers",
        -9.206632151623891
      ],
      [
        "ဝါ",
        -9.208309465917486
      ],
      [
        "မွဲဂှ်",
        -9.208629881501551
      ],
      [
        "▁generate",
        -9.209001029269842
      ],
      [
        "▁ဂလာန်",
        -9.209075505394626
      ],
      [
        "▁current",
        -9.20932927753898
      ],
      [
        "bring",
        -9.209545247768986
      ],
      [
        "▁price",
        -9.210778899519276
      ],
      [
        "[id",
        -9.210787754577144
      ],
      [
        "▁continue",
        -9.211120724406017
      ],
      [
        "ရဲ",
        -9.215393159863929
      ],
      [
        "ဘဲ",
        -9.217227951303693
      ],
      [
        "ရပ်",
        -9.21782888776348
      ],
      [
        "▁understanding",
        -9.219690061002765
      ],
      [
        "▁case",
        -9.221238462213233
      ],
      [
        "▁am",
        -9.221257584070122
      ],
      [
        "ဂမၠိုၚ်ဂှ်",
        -9.223291763458397
      ],
      [
        "et",
        -9.227428091143514
      ],
      [
        "▁ဒ",
        -9.229488737412737
      ],
      [
        "▁values",
        -9.230065372847264
      ],
      [
        "▁quality",
        -9.231189723226223
      ],
      [
        "vt.",
        -9.23310895711306
      ],
      [
        "▁feeling",
        -9.233409057514793
      ],
      [
        "taking",
        -9.233897572463569
      ],
      [
        "▁complete",
        -9.234041090498579
      ],
      [
        "ယဲ",
        -9.234899903410811
      ],
      [
        "ဒှ်တုဲ",
        -9.235216224230602
      ],
      [
        "ဝၚ်",
        -9.236765646692106
      ],
      [
        "ဆု",
        -9.236778156821906
      ],
      [
        "▁concept",
        -9.237743579363357
      ],
      [
        "ဆက်",
        -9.239679896128393
      ],
      [
        "▁perform",
        -9.240429818745994
      ],
      [
        "▁Make",
        -9.24164495023523
      ],
      [
        "▁U",
        -9.242551901436007
      ],
      [
        "▁travel",
        -9.243178679040517
      ],
      [
        "▁economic",
        -9.243361199443049
      ],
      [
        "ဖျေံ",
        -9.243569628447858
      ],
      [
        "▁လ္ပ",
        -9.243603015556737
      ],
      [
        "▁intelligence",
        -9.243665009738244
      ],
      [
        "▁ညံင်ဂွံ",
        -9.244533515966843
      ],
      [
        "▁phrase",
        -9.2447682432979
      ],
      [
        "မာ",
        -9.244802604325969
      ],
      [
        "▁accurate",
        -9.24510180613566
      ],
      [
        "▁6",
        -9.24701028660185
      ],
      [
        "ation",
        -9.247515547951753
      ],
      [
        "▁10.",
        -9.248369522692336
      ],
      [
        "ဖ",
        -9.249222567464201
      ],
      [
        "▁waste",
        -9.251014508834846
      ],
      [
        "▁present",
        -9.251291442950192
      ],
      [
        "တအ်ရ။",
        -9.252165744624975
      ],
      [
        "y.",
        -9.25245391623542
      ],
      [
        "▁မိက်ဂွံ",
        -9.25309659245907
      ],
      [
        "အလဵုအသဳ",
        -9.253635106202747
      ],
      [
        "ကေုာံ",
        -9.254202994941298
      ],
      [
        "e.",
        -9.254527937896825
      ],
      [
        "▁Earth",
        -9.25531181722163
      ],
      [
        "ဂးရ။",
        -9.255504693693776
      ],
      [
        "▁night",
        -9.257346632642925
      ],
      [
        "▁decisions",
        -9.25853740695873
      ],
      [
        "တို့သည်",
        -9.258546413635433
      ],
      [
        "▁animals",
        -9.25919654867424
      ],
      [
        "▁friends",
        -9.259361723874397
      ],
      [
        "▁security",
        -9.259894627461922
      ],
      [
        "▁topic",
        -9.260694880183319
      ],
      [
        "▁particular",
        -9.26082578461771
      ],
      [
        "▁protect",
        -9.261399035494307
      ],
      [
        "▁patterns",
        -9.262122858867102
      ],
      [
        "▁J",
        -9.262262854601492
      ],
      [
        "▁healthcare",
        -9.26326009278834
      ],
      [
        "▁easy",
        -9.264504603763857
      ],
      [
        "▁အ္စာ",
        -9.266781461859969
      ],
      [
        "ဓရ်",
        -9.267348752166331
      ],
      [
        "မွဲမွဲ",
        -9.267782962862242
      ],
      [
        "leading",
        -9.269104874208614
      ],
      [
        "▁analysis",
        -9.269820200221735
      ],
      [
        "အောင်",
        -9.270543349375554
      ],
      [
        "▁အတိုင်",
        -9.270555175984297
      ],
      [
        "▁meaning",
        -9.271330447325994
      ],
      [
        "က်",
        -9.271705334334968
      ],
      [
        "စှ်ေ",
        -9.272071184595152
      ],
      [
        "▁ပရူ",
        -9.273275451022783
      ],
      [
        "ပြီး",
        -9.27337445956266
      ],
      [
        "ဏအ်ဂှ်",
        -9.274421813746338
      ],
      [
        "▁describe",
        -9.276163020805585
      ],
      [
        "users",
        -9.278122295784481
      ],
      [
        "ditionally",
        -9.278307721316605
      ],
      [
        "▁approach",
        -9.278826259225117
      ],
      [
        "ကျ",
        -9.279634516672157
      ],
      [
        "ပ္တိတ်",
        -9.281896807834634
      ],
      [
        "ပၠန်ရ။",
        -9.282216141027188
      ],
      [
        "▁turn",
        -9.283516298628234
      ],
      [
        "တၚ်",
        -9.284939252058908
      ],
      [
        "▁De",
        -9.285933380881756
      ],
      [
        "နာနာ",
        -9.286649516617747
      ],
      [
        "▁၁၀",
        -9.286712263146004
      ],
      [
        "due",
        -9.287534640747012
      ],
      [
        "၄။",
        -9.287613493944155
      ],
      [
        "▁လ္တူ",
        -9.287960762015672
      ],
      [
        "ting",
        -9.288337525166261
      ],
      [
        "▁မဆေၚ်စပ်ကဵု",
        -9.288457586441355
      ],
      [
        "ရံၚ်",
        -9.28870892047355
      ],
      [
        "▁အရေဝ်",
        -9.28955790441426
      ],
      [
        "▁movie",
        -9.290473277881492
      ],
      [
        "\t(adj)",
        -9.291163566055715
      ],
      [
        "▁လ",
        -9.291696872992908
      ],
      [
        "ၜိုတ်",
        -9.292727942554837
      ],
      [
        "လက်",
        -9.292825093080257
      ],
      [
        "▁account",
        -9.292969636872101
      ],
      [
        "ဗၟာ",
        -9.29309694261445
      ],
      [
        "ကောန်ဂကူ",
        -9.295995287787285
      ],
      [
        "▁ဗွဲ",
        -9.296105677765771
      ],
      [
        "▁rate",
        -9.296335038554428
      ],
      [
        "▁ပညာ",
        -9.297063919980179
      ],
      [
        "▁try",
        -9.29737124008468
      ],
      [
        "▁And",
        -9.297430079712086
      ],
      [
        "▁past",
        -9.297528208999216
      ],
      [
        "▁ကိစ္စ",
        -9.29790533661529
      ],
      [
        "▁တၞဟ်န",
        -9.300894665554633
      ],
      [
        "▁လပါ်",
        -9.30179317124384
      ],
      [
        "might",
        -9.302575379064741
      ],
      [
        "▁ဗၞတ်",
        -9.302866509808101
      ],
      [
        "▁မ္ဂးဂှ်",
        -9.303164305676669
      ],
      [
        "▁history",
        -9.303512783413982
      ],
      [
        "မာန်ဂှ်",
        -9.304303871426931
      ],
      [
        "ဗော်ဍုၚ်မန်တၟိ",
        -9.305496186972338
      ],
      [
        "ပ္တိုန်",
        -9.30564969367861
      ],
      [
        "—",
        -9.305722277958267
      ],
      [
        "▁second",
        -9.305943878030948
      ],
      [
        "▁training",
        -9.30598501689765
      ],
      [
        "▁ဒှ်အာ",
        -9.306024692113077
      ],
      [
        "um",
        -9.306927148604437
      ],
      [
        "▁management",
        -9.308788564433112
      ],
      [
        "▁major",
        -9.309298500342585
      ],
      [
        "ဆီ",
        -9.30960774614864
      ],
      [
        "▁countries",
        -9.310262952883077
      ],
      [
        "ကံ",
        -9.310550252337523
      ],
      [
        "▁move",
        -9.312675267353185
      ],
      [
        "▁line",
        -9.313012382209257
      ],
      [
        "▁သက္ကရာဇ်",
        -9.313040705856427
      ],
      [
        "▁face",
        -9.314618092456989
      ],
      [
        "▁ဘာသာ",
        -9.31497275173251
      ],
      [
        "▁difference",
        -9.315101122398193
      ],
      [
        "▁စကာ",
        -9.3155737545611
      ],
      [
        "▁plant",
        -9.317074494547485
      ],
      [
        "▁achieve",
        -9.31742679364643
      ],
      [
        "▁ဗော်ဍုၚ်မန်တၟိ",
        -9.31885191268389
      ],
      [
        "▁သ္ဂောံ",
        -9.319007231572602
      ],
      [
        "တို့",
        -9.319480782487659
      ],
      [
        "▁/",
        -9.319933461702464
      ],
      [
        "▁မနွံ",
        -9.320287813758132
      ],
      [
        "ဟွံဂွံ",
        -9.320895305248204
      ],
      [
        "▁free",
        -9.321444355668934
      ],
      [
        "▁page",
        -9.323198656762248
      ],
      [
        "ာ",
        -9.32371989283549
      ],
      [
        "ရော?",
        -9.32385422902555
      ],
      [
        "▁အရာမ",
        -9.324789819558285
      ],
      [
        "steps",
        -9.32524983690056
      ],
      [
        "▁size",
        -9.325298349604136
      ],
      [
        "▁ကပေါတ်",
        -9.326098906679373
      ],
      [
        "▁techniques",
        -9.326205389070278
      ],
      [
        "▁transportation",
        -9.326227742389808
      ],
      [
        "▁never",
        -9.327786251829629
      ],
      [
        "▁next",
        -9.329475658867516
      ],
      [
        "▁temperature",
        -9.331431043576073
      ],
      [
        "▁ကျာ်ဇၞော်",
        -9.332295966742471
      ],
      [
        "ar",
        -9.332318474750602
      ],
      [
        "▁warm",
        -9.333335836652239
      ],
      [
        "ဓ",
        -9.334039471949065
      ],
      [
        "write",
        -9.334304655901864
      ],
      [
        "allows",
        -9.33524869726665
      ],
      [
        "▁track",
        -9.335903320964707
      ],
      [
        "▁predict",
        -9.336750877128779
      ],
      [
        "▁country",
        -9.337088765384564
      ],
      [
        "ment",
        -9.338147141173001
      ],
      [
        "ve",
        -9.33859155962212
      ],
      [
        "▁heat",
        -9.338789352941186
      ],
      [
        "increasing",
        -9.338834891519731
      ],
      [
        "▁working",
        -9.339408248358362
      ],
      [
        "2",
        -9.339527110350936
      ],
      [
        "▁refer",
        -9.341441989300044
      ],
      [
        "ways",
        -9.341644305604111
      ],
      [
        "▁States",
        -9.34431827221979
      ],
      [
        "ဥပမာ",
        -9.347052706117267
      ],
      [
        "▁money",
        -9.347155419963034
      ],
      [
        "▁မု",
        -9.348127495917947
      ],
      [
        "▁fast",
        -9.348437231093806
      ],
      [
        "▁remain",
        -9.348459912622527
      ],
      [
        "အကြာ",
        -9.348887338361433
      ],
      [
        "တၠ",
        -9.34894561018817
      ],
      [
        "စွံ",
        -9.350321706192855
      ],
      [
        "▁building",
        -9.350480955761455
      ],
      [
        "သၚ်",
        -9.350888817747787
      ],
      [
        "▁(A",
        -9.350915045102791
      ],
      [
        "ရောၚ်၊",
        -9.351066775504737
      ],
      [
        "▁knowledge",
        -9.35190163149845
      ],
      [
        "as",
        -9.352981219586061
      ],
      [
        "▁test",
        -9.353362741274807
      ],
      [
        "▁factors",
        -9.353432874560863
      ],
      [
        "▁per",
        -9.353714081037236
      ],
      [
        "▁tool",
        -9.354268394802286
      ],
      [
        "▁web",
        -9.354290689967769
      ],
      [
        "▁character",
        -9.35442375311698
      ],
      [
        "▁nature",
        -9.356325007043498
      ],
      [
        "Find",
        -9.356718180840002
      ],
      [
        "▁multiple",
        -9.356946347394857
      ],
      [
        "လိုက်",
        -9.358235346022925
      ],
      [
        "ဇိုၚ်",
        -9.358741968549786
      ],
      [
        "ဂကူမန်",
        -9.359302952345217
      ],
      [
        "▁patient",
        -9.359653007570174
      ],
      [
        "ချူ",
        -9.360017878554945
      ],
      [
        "l",
        -9.361613590066002
      ],
      [
        "အ္စာ",
        -9.361855704747502
      ],
      [
        "▁negative",
        -9.363546268934194
      ],
      [
        "အခိၚ်",
        -9.363556772494766
      ],
      [
        "ကြီး",
        -9.364084931912535
      ],
      [
        "ပၟတ်",
        -9.364765245335303
      ],
      [
        "ဂၠိုၚ်",
        -9.365045766097357
      ],
      [
        "ဝေၚ်",
        -9.365310031517723
      ],
      [
        "▁feedback",
        -9.36880422067261
      ],
      [
        "▁လ္ပာ်",
        -9.369132900304049
      ],
      [
        "▁၆",
        -9.370312434873014
      ],
      [
        "▁someone",
        -9.370465027638721
      ],
      [
        "▁forest",
        -9.371698775070556
      ],
      [
        "▁8",
        -9.371722755699496
      ],
      [
        "▁မန်",
        -9.372918063386603
      ],
      [
        "▁data.",
        -9.3767539781057
      ],
      [
        "ညးတအ်",
        -9.376870112597938
      ],
      [
        "▁young",
        -9.37706703320583
      ],
      [
        "ကၟိန်ဍုၚ်",
        -9.378413858558512
      ],
      [
        "▁less",
        -9.378701086558928
      ],
      [
        "▁(၄)",
        -9.379560256819307
      ],
      [
        "▁string",
        -9.379877451799743
      ],
      [
        "▁local",
        -9.382146474021027
      ],
      [
        "ဏောၚ်၊",
        -9.383801387389486
      ],
      [
        "▁success",
        -9.384217571871318
      ],
      [
        "▁array",
        -9.384680995913655
      ],
      [
        "▁general",
        -9.38491754386662
      ],
      [
        "▁away",
        -9.38576978496624
      ],
      [
        "▁၁၈",
        -9.387327782980105
      ],
      [
        "led",
        -9.389149284323057
      ],
      [
        "d.",
        -9.390077248476572
      ],
      [
        "▁ထ",
        -9.391744046081573
      ],
      [
        "▁state",
        -9.392049472180723
      ],
      [
        "သၞောဝ်",
        -9.392640730941327
      ],
      [
        "▁solution",
        -9.393012779654018
      ],
      [
        "el",
        -9.394074517173063
      ],
      [
        "▁population",
        -9.39471231250861
      ],
      [
        "▁species",
        -9.39535387756205
      ],
      [
        "upon",
        -9.395580621981463
      ],
      [
        "ကောန်ဂကူမန်",
        -9.39565304060442
      ],
      [
        "mong",
        -9.396114653272827
      ],
      [
        "ရှိ",
        -9.396496081950314
      ],
      [
        "▁So",
        -9.396945251042496
      ],
      [
        "▁determine",
        -9.397044880739632
      ],
      [
        "▁put",
        -9.398524147727983
      ],
      [
        "▁certain",
        -9.39853122479757
      ],
      [
        "▁meet",
        -9.398723397816902
      ],
      [
        "▁message",
        -9.398942233158905
      ],
      [
        "▁emissions",
        -9.401585656464752
      ],
      [
        "▁ဒပ်ပၞာန်",
        -9.4037355722141
      ],
      [
        "▁ကြက်",
        -9.4040105269366
      ],
      [
        "▁reason",
        -9.40421058060403
      ],
      [
        "▁traditional",
        -9.405222759056091
      ],
      [
        "စွံလဝ်",
        -9.406267625737744
      ],
      [
        "▁ပ္ဍဲအရာ",
        -9.406438909321881
      ],
      [
        "▁analyze",
        -9.408490312651772
      ],
      [
        "▁devices",
        -9.409518283482017
      ],
      [
        "ကျာ",
        -9.409546132752709
      ],
      [
        "▁ဗွဲမ",
        -9.40982612313524
      ],
      [
        "▁check",
        -9.410604032347944
      ],
      [
        "▁necessary",
        -9.411451671252738
      ],
      [
        "အိုတ်ရ",
        -9.412071445274742
      ],
      [
        "es.",
        -9.412870597372091
      ],
      [
        "လေ",
        -9.414351745868188
      ],
      [
        "ကာလ",
        -9.41518872317185
      ],
      [
        "▁သၟာ",
        -9.41530214353941
      ],
      [
        "▁ပွိုၚ်ဍုၚ်",
        -9.415837812862602
      ],
      [
        "▁minutes",
        -9.416313287277188
      ],
      [
        "▁task",
        -9.416673337547453
      ],
      [
        "▁Mon",
        -9.41701082243862
      ],
      [
        "မုက်",
        -9.417098059670689
      ],
      [
        "▁care",
        -9.417732340088259
      ],
      [
        "variety",
        -9.418202882439285
      ],
      [
        "▁(S",
        -9.41830154505211
      ],
      [
        "ဂၠံၚ်",
        -9.418423947524651
      ],
      [
        "▁mind",
        -9.419092040533513
      ],
      [
        "t)",
        -9.419181932359503
      ],
      [
        "▁year",
        -9.421037044276414
      ],
      [
        "▁points",
        -9.42159848621856
      ],
      [
        "▁efficient",
        -9.422323157874626
      ],
      [
        "g",
        -9.422474830849207
      ],
      [
        "▁V",
        -9.423366041063122
      ],
      [
        "▁ၜိုန်",
        -9.423950822206294
      ],
      [
        "▁ညံၚ်ရဴ",
        -9.424450094221307
      ],
      [
        "▁digital",
        -9.426411778541684
      ],
      [
        "▁clean",
        -9.427212479502362
      ],
      [
        "▁သင်",
        -9.427339730736392
      ],
      [
        "ဟ်",
        -9.42850923538293
      ],
      [
        "ခြင်း",
        -9.428558203178625
      ],
      [
        "relevant",
        -9.428801628588188
      ],
      [
        "▁ဒပ်",
        -9.428855249572585
      ],
      [
        "▁effectively",
        -9.428940872269123
      ],
      [
        "ဒဵု",
        -9.429002413036212
      ],
      [
        "▁မလေပ်",
        -9.429259519436963
      ],
      [
        "▁methods",
        -9.430267903315992
      ],
      [
        "ကော်",
        -9.430394518988866
      ],
      [
        "▁equal",
        -9.430824158323189
      ],
      [
        "တိုက်",
        -9.430857974214398
      ],
      [
        "▁produce",
        -9.431752990341112
      ],
      [
        "%",
        -9.432500059318293
      ],
      [
        "ကောန်ဍုၚ်အရၚ်",
        -9.432646237007233
      ],
      [
        "stead",
        -9.436522245308613
      ],
      [
        "ဒပ်",
        -9.437789406114788
      ],
      [
        "ဆ",
        -9.438031458648423
      ],
      [
        "▁cat",
        -9.438342660473111
      ],
      [
        "▁manage",
        -9.438874671606722
      ],
      [
        "▁school",
        -9.43910631798336
      ],
      [
        "▁activity",
        -9.440443535624219
      ],
      [
        "▁wind",
        -9.440896217792773
      ],
      [
        "▁quickly",
        -9.441803418546765
      ],
      [
        "▁internet",
        -9.442772554602584
      ],
      [
        "မ္ဂးဂှ်",
        -9.443057836485245
      ],
      [
        "▁ဇၟာပ်",
        -9.443906384804606
      ],
      [
        "▁ဗောဓိသတ်",
        -9.444648629188968
      ],
      [
        "ပ်",
        -9.445427618753996
      ],
      [
        "▁၁၂",
        -9.446349611240596
      ],
      [
        "▁professional",
        -9.446669850045609
      ],
      [
        "▁results",
        -9.447104410490303
      ],
      [
        "လည်း",
        -9.448068977124247
      ],
      [
        "▁ကျာ်",
        -9.448451256381443
      ],
      [
        "▁children",
        -9.448487258182414
      ],
      [
        "ကဝ်",
        -9.450056554056964
      ],
      [
        "▁အဃော",
        -9.450476970834302
      ],
      [
        "▁available",
        -9.450611826718035
      ],
      [
        "လဵု",
        -9.452354602990605
      ],
      [
        "▁purpose",
        -9.453510104210556
      ],
      [
        "စကာ",
        -9.454994420850275
      ],
      [
        "▁now",
        -9.455899384027928
      ],
      [
        "▁improv",
        -9.456367216550946
      ],
      [
        "▁effort",
        -9.456443734197702
      ],
      [
        "ဂဥုဲ",
        -9.456627521084712
      ],
      [
        "▁promote",
        -9.458306921890152
      ],
      [
        "▁သာ်",
        -9.458857749011505
      ],
      [
        "▁land",
        -9.458908436183165
      ],
      [
        "▁opportunities",
        -9.458922336929321
      ],
      [
        "1",
        -9.459236947767472
      ],
      [
        "▁object",
        -9.459398110304985
      ],
      [
        "▁build",
        -9.460544501870558
      ],
      [
        "▁characters",
        -9.460607290593646
      ],
      [
        "ညံၚ်",
        -9.461217235527581
      ],
      [
        "▁ဥပမာ",
        -9.461530319680818
      ],
      [
        "cross",
        -9.461554396015716
      ],
      [
        "'m",
        -9.462413786118017
      ],
      [
        "▁conclusion",
        -9.462554181209653
      ],
      [
        "[",
        -9.462628839044612
      ],
      [
        "▁က္ဍိုပ်သ္ကိုပ်",
        -9.462828974448577
      ],
      [
        "ဂှ်မ္ဂး",
        -9.465233694881677
      ],
      [
        "▁(သ္ဂး",
        -9.465931975495856
      ],
      [
        "▁paper",
        -9.466165955954283
      ],
      [
        "ရောင်",
        -9.466282100233101
      ],
      [
        "designed",
        -9.467075194602838
      ],
      [
        "▁brand",
        -9.468778589748148
      ],
      [
        "▁ဗီုလဵု",
        -9.46923829155386
      ],
      [
        "▁things",
        -9.46942827177192
      ],
      [
        "▁kind",
        -9.469801690679914
      ],
      [
        "▁industry",
        -9.469879404053781
      ],
      [
        "▁မဟွံ",
        -9.470076056535671
      ],
      [
        "▁final",
        -9.470595709289755
      ],
      [
        "▁table",
        -9.471160587959417
      ],
      [
        "▁let",
        -9.471212154307914
      ],
      [
        "▁conditions",
        -9.474450883688284
      ],
      [
        "▁post",
        -9.474455198371865
      ],
      [
        "▁concern",
        -9.47500835434127
      ],
      [
        "▁၈",
        -9.477400947323469
      ],
      [
        "▁still",
        -9.478575970865155
      ],
      [
        "▁သြန်",
        -9.479202475885554
      ],
      [
        "▁affect",
        -9.480421185980127
      ],
      [
        "▁ဂိတု",
        -9.480804911387757
      ],
      [
        "▁Man",
        -9.480967473954706
      ],
      [
        "▁rule",
        -9.481308798133522
      ],
      [
        "powerful",
        -9.482847109569454
      ],
      [
        "နၚ်",
        -9.48295208575907
      ],
      [
        "▁ရုပ်",
        -9.48333195493069
      ],
      [
        "▁di",
        -9.484260343708959
      ],
      [
        "▁art",
        -9.484621249861714
      ],
      [
        "very",
        -9.484937444481897
      ],
      [
        "is",
        -9.4864044925665
      ],
      [
        "▁fe",
        -9.487699689200848
      ],
      [
        "▁ဂွံဆဵုကေတ်",
        -9.488399429711691
      ],
      [
        "▁appropriate",
        -9.488491158945699
      ],
      [
        "▁length",
        -9.488736123327882
      ],
      [
        "ဂစိုတ်",
        -9.4888376487201
      ],
      [
        "▁(၅)",
        -9.488838150534544
      ],
      [
        "မဒှ်",
        -9.489049779332248
      ],
      [
        "▁sound",
        -9.489576958765987
      ],
      [
        "coming",
        -9.489761269142825
      ],
      [
        "▁last",
        -9.491580484029935
      ],
      [
        "medical",
        -9.49471127502268
      ],
      [
        "▁ဝါ",
        -9.494795855250771
      ],
      [
        "▁၂၀",
        -9.495636359857215
      ],
      [
        "on",
        -9.496427297653897
      ],
      [
        "ညာတ်",
        -9.496845263614912
      ],
      [
        "ပါၚ်",
        -9.498157795334915
      ],
      [
        "▁John",
        -9.498223311723056
      ],
      [
        "▁နွံပ္ဍဲ",
        -9.498517865925765
      ],
      [
        "သူ",
        -9.498686317992217
      ],
      [
        "ဇြဟတ်",
        -9.498861883577597
      ],
      [
        "ပရိုၚ်",
        -9.500089386919313
      ],
      [
        "လ္ၚဵု",
        -9.5007709052548
      ],
      [
        "▁suggest",
        -9.501054204298658
      ],
      [
        "▁7",
        -9.501224672298118
      ],
      [
        "▁culture",
        -9.501906160028415
      ],
      [
        "▁engag",
        -9.50217337330313
      ],
      [
        "သဳ",
        -9.502323348438967
      ],
      [
        "▁living",
        -9.503035434126176
      ],
      [
        "▁close",
        -9.503568484165175
      ],
      [
        "ဂြိုပ်",
        -9.504657763064237
      ],
      [
        "▁measure",
        -9.504663892317968
      ],
      [
        "▁run",
        -9.505076570602508
      ],
      [
        "▁assistant",
        -9.505932549622676
      ],
      [
        "သာသနာ",
        -9.505951508326534
      ],
      [
        "▁ချူ",
        -9.50729315321487
      ],
      [
        "▁companies",
        -9.508053139310395
      ],
      [
        "house",
        -9.509088805974905
      ],
      [
        "▁ယေန်သၞာင်",
        -9.510530810800848
      ],
      [
        "ical",
        -9.510818055169654
      ],
      [
        "အရေဝ်",
        -9.511516552399636
      ],
      [
        "ဒုၚ်",
        -9.512208176206506
      ],
      [
        "▁visual",
        -9.513676658833996
      ],
      [
        "▁applications",
        -9.514377792079406
      ],
      [
        "ထ္ၜး",
        -9.51453670944122
      ],
      [
        "ဂး",
        -9.514745848941855
      ],
      [
        "လျက်",
        -9.515067197548582
      ],
      [
        "artificial",
        -9.515630414932616
      ],
      [
        "▁walk",
        -9.51580463116818
      ],
      [
        "▁questions",
        -9.516515985882885
      ],
      [
        "▁speed",
        -9.516799142194598
      ],
      [
        "one",
        -9.516814208365616
      ],
      [
        "ether",
        -9.517315209764089
      ],
      [
        "▁20",
        -9.517696626116646
      ],
      [
        "▁(န",
        -9.519138618398085
      ],
      [
        "ဝင်",
        -9.519390650856948
      ],
      [
        "▁differences",
        -9.51946360010318
      ],
      [
        "ပတိုန်",
        -9.521016248311309
      ],
      [
        "▁(v",
        -9.523198233373792
      ],
      [
        "self",
        -9.524177060126648
      ],
      [
        "having",
        -9.524279285700759
      ],
      [
        "▁output",
        -9.525535098684951
      ],
      [
        "သွံ",
        -9.526008715143139
      ],
      [
        "▁မပ္တံ",
        -9.526236900329994
      ],
      [
        "▁မုဟိုတ်",
        -9.526857882245512
      ],
      [
        "▁weather",
        -9.529077432301847
      ],
      [
        "▁mental",
        -9.52990462523129
      ],
      [
        "တင်",
        -9.530325176273227
      ],
      [
        "▁four",
        -9.530887064025665
      ],
      [
        "▁moment",
        -9.531235165240144
      ],
      [
        "▁question",
        -9.531273931480946
      ],
      [
        "▁ညးစၞး",
        -9.531728237528903
      ],
      [
        "လညာတ်",
        -9.532952080224629
      ],
      [
        "▁correct",
        -9.533239305953362
      ],
      [
        "e,",
        -9.533815206163698
      ],
      [
        "save",
        -9.534094778354483
      ],
      [
        "-based",
        -9.534322569697434
      ],
      [
        "▁location",
        -9.534632211251022
      ],
      [
        "▁spread",
        -9.534959917530013
      ],
      [
        "ty",
        -9.535687953328349
      ],
      [
        "▁journey",
        -9.536585179747863
      ],
      [
        "ize",
        -9.536735851724634
      ],
      [
        "▁error",
        -9.537099418412357
      ],
      [
        "▁style",
        -9.53777538755541
      ],
      [
        "တေံဂှ်",
        -9.538211340599464
      ],
      [
        "▁old",
        -9.540050347185357
      ],
      [
        "gan",
        -9.540252163145869
      ],
      [
        "▁progress",
        -9.540581914428547
      ],
      [
        "▁class",
        -9.541077394823763
      ],
      [
        "▁ထပ်",
        -9.541319522745475
      ],
      [
        "▁lower",
        -9.541628220078438
      ],
      [
        "▁သတ်",
        -9.54179555932517
      ],
      [
        "▁cup",
        -9.542180532102865
      ],
      [
        "▁virtual",
        -9.54238759220701
      ],
      [
        "သို့",
        -9.54266285141803
      ],
      [
        "▁efficiency",
        -9.54301252913655
      ],
      [
        "▁တၠအဲ",
        -9.543017254315439
      ],
      [
        "▁explore",
        -9.544731634276742
      ],
      [
        "▁total",
        -9.54561839127208
      ],
      [
        "▁But",
        -9.546332434154131
      ],
      [
        "▁ဘဝ",
        -9.546337941287783
      ],
      [
        "မၞုံကဵု",
        -9.547250081810798
      ],
      [
        "▁pollution",
        -9.547720951082766
      ],
      [
        "ခမဳ",
        -9.549261177036257
      ],
      [
        "▁element",
        -9.549397053138318
      ],
      [
        "▁full",
        -9.549845224547406
      ],
      [
        "▁materials",
        -9.550360800854671
      ],
      [
        "▁ဗီုပြင်",
        -9.550564806972671
      ],
      [
        "▁processing",
        -9.5512170483231
      ],
      [
        "မှု",
        -9.551657119742998
      ],
      [
        "ဟွံမွဲ",
        -9.551697180817099
      ],
      [
        "ach",
        -9.552630722396394
      ],
      [
        "▁method",
        -9.553124006045833
      ],
      [
        "▁ကြဴနူ",
        -9.554488006846327
      ],
      [
        "▁ဒးဒုၚ်",
        -9.556739650408879
      ],
      [
        "▁fall",
        -9.557066211798745
      ],
      [
        "▁diet",
        -9.55935320929574
      ],
      [
        "▁loss",
        -9.559648828027676
      ],
      [
        "▁explain",
        -9.55976479174695
      ],
      [
        "▁Take",
        -9.56012670946334
      ],
      [
        "sources",
        -9.561631960565332
      ],
      [
        "ရေး",
        -9.56193193001861
      ],
      [
        "▁ကုခမဳ",
        -9.562408900529645
      ],
      [
        "▁caus",
        -9.562771255395559
      ],
      [
        "▁effects",
        -9.562780901158796
      ],
      [
        "▁ဒြဟတ်",
        -9.563094765733341
      ],
      [
        "ဒဳ",
        -9.563372811705584
      ],
      [
        "▁grow",
        -9.563845536566706
      ],
      [
        "▁မ္ဒး",
        -9.564072543145546
      ],
      [
        "လၟုဟ်",
        -9.56423878811901
      ],
      [
        "renewable",
        -9.564875595185335
      ],
      [
        "sustainable",
        -9.565788362976129
      ],
      [
        "သ္ဂောံ",
        -9.56644014209269
      ],
      [
        "er.",
        -9.568437566939195
      ],
      [
        "▁ပါလုပ်",
        -9.56850058237152
      ],
      [
        "z",
        -9.568737083955565
      ],
      [
        "▁avoid",
        -9.569690742677874
      ],
      [
        "▁List",
        -9.569917506808276
      ],
      [
        "▁solve",
        -9.5700058835573
      ],
      [
        "ယၟု",
        -9.57012840377859
      ],
      [
        "▁က္လိဂွံ",
        -9.570469414355639
      ],
      [
        "▁sea",
        -9.571679318559966
      ],
      [
        "▁cloud",
        -9.57184237920897
      ],
      [
        "D",
        -9.572459755680732
      ],
      [
        "▁break",
        -9.573427181638472
      ],
      [
        "▁higher",
        -9.573440616516038
      ],
      [
        "▁subject",
        -9.57354398557031
      ],
      [
        "တော်",
        -9.573634318490882
      ],
      [
        "did",
        -9.574210289850516
      ],
      [
        "တူ",
        -9.574283324120163
      ],
      [
        "▁review",
        -9.575167040023866
      ],
      [
        "▁fruit",
        -9.57540872551899
      ],
      [
        "▁ဏအ်",
        -9.575790425001536
      ],
      [
        "▁၉",
        -9.579001031876686
      ],
      [
        "▁component",
        -9.579046903969385
      ],
      [
        "▁exercise",
        -9.57943980539795
      ],
      [
        "လ္ပာ်",
        -9.5795528493096
      ],
      [
        "တီ",
        -9.58025688917488
      ],
      [
        "along",
        -9.581171535733333
      ],
      [
        "▁အိုတ်",
        -9.581577682443466
      ],
      [
        "ရတ်",
        -9.582202186110806
      ],
      [
        "▁record",
        -9.582337261929922
      ],
      [
        "▁calculate",
        -9.582784635780607
      ],
      [
        "▁lives",
        -9.583417182883927
      ],
      [
        "▁၂၀၂၁",
        -9.5837490039882
      ],
      [
        "▁left",
        -9.584358371608115
      ],
      [
        "▁options",
        -9.58573342568635
      ],
      [
        "▁models",
        -9.585849796609779
      ],
      [
        "ဘာသာ",
        -9.586827508002905
      ],
      [
        "▁ဝင်",
        -9.588022983001405
      ],
      [
        "ch",
        -9.588838629948029
      ],
      [
        "ပတိတ်",
        -9.589980291429153
      ],
      [
        "▁ဓါတ်",
        -9.590859458912997
      ],
      [
        "ယ",
        -9.591721093605326
      ],
      [
        "ဍောတ်",
        -9.59208331702973
      ],
      [
        "▁phone",
        -9.592279316050188
      ],
      [
        "▁head",
        -9.592375139955148
      ],
      [
        "not",
        -9.592824765880303
      ],
      [
        "▁sum",
        -9.594473230594499
      ],
      [
        "လေပ်",
        -9.595075050567377
      ],
      [
        "▁society",
        -9.595455544796454
      ],
      [
        "▁true",
        -9.595615644861587
      ],
      [
        "တန်",
        -9.595711252124607
      ],
      [
        "Var",
        -9.595748925793618
      ],
      [
        "▁demand",
        -9.596064222610513
      ],
      [
        "▁purchase",
        -9.59677101753281
      ],
      [
        "တၞံ",
        -9.597622955357782
      ],
      [
        "နူကဵု",
        -9.597675104561414
      ],
      [
        "ကီု။",
        -9.597802670522515
      ],
      [
        "▁rise",
        -9.5984122623215
      ],
      [
        "▁speech",
        -9.599480459684756
      ],
      [
        "▁situation",
        -9.599601523828309
      ],
      [
        "▁၁၅",
        -9.59962194602478
      ],
      [
        "တွဵုရးဍုၚ်မန်",
        -9.600388995960044
      ],
      [
        "▁ခေတ်",
        -9.600438603006925
      ],
      [
        "\tvt.vi.",
        -9.600766442299506
      ],
      [
        "'re",
        -9.600831781128553
      ],
      [
        "▁တိ",
        -9.601924174469225
      ],
      [
        "ant",
        -9.60301622267906
      ],
      [
        "▁employees",
        -9.60304322194392
      ],
      [
        "▁အလုံ",
        -9.603169783575764
      ],
      [
        "mportance",
        -9.603435666262678
      ],
      [
        "ဒုဟ်",
        -9.603516150489922
      ],
      [
        "ပေၚ်",
        -9.603796085613428
      ],
      [
        "▁law",
        -9.603865861060445
      ],
      [
        "ဂုဏ်",
        -9.603913932578596
      ],
      [
        "▁implement",
        -9.605113536447686
      ],
      [
        "▁voice",
        -9.605484524671752
      ],
      [
        "▁course",
        -9.605539684655337
      ],
      [
        "လီု",
        -9.605707778049172
      ],
      [
        "p",
        -9.606591659413464
      ],
      [
        "▁regular",
        -9.606749687256578
      ],
      [
        "▁creative",
        -9.60735888604394
      ],
      [
        "▁done",
        -9.607981795586124
      ],
      [
        "▁var",
        -9.608809216745247
      ],
      [
        "\",",
        -9.610649550524634
      ],
      [
        "▁Provide",
        -9.610988263974136
      ],
      [
        "▁sleep",
        -9.611152724881542
      ],
      [
        "သၟာန်",
        -9.611516269440148
      ],
      [
        "ပွမ",
        -9.611522082303285
      ],
      [
        "▁sky",
        -9.61307497480156
      ],
      [
        "▁Can",
        -9.614660357832978
      ],
      [
        "olar",
        -9.615307931733303
      ],
      [
        "▁(C",
        -9.615643021357412
      ],
      [
        "ဲ",
        -9.616179528927738
      ],
      [
        "▁decision",
        -9.616355466171006
      ],
      [
        "▁community",
        -9.616561760081208
      ],
      [
        "either",
        -9.616755063625934
      ],
      [
        "ally",
        -9.617565554625639
      ],
      [
        "အရာ",
        -9.620131984877435
      ],
      [
        "▁non-",
        -9.620873828358548
      ],
      [
        "▁shape",
        -9.622018488613682
      ],
      [
        "▁After",
        -9.622331179972825
      ],
      [
        "ကပေါတ်",
        -9.622586969007973
      ],
      [
        "▁view",
        -9.624209666228875
      ],
      [
        "▁တၠပညာ",
        -9.624863944605693
      ],
      [
        "▁ကေတ်",
        -9.624893636503565
      ],
      [
        "▁weight",
        -9.625104434270238
      ],
      [
        "▁display",
        -9.625548977351745
      ],
      [
        "cial",
        -9.626624762659333
      ],
      [
        "▁atmosphere",
        -9.626676907163478
      ],
      [
        "it",
        -9.627424315765508
      ],
      [
        "ယာ",
        -9.627504028019978
      ],
      [
        "▁video",
        -9.628544828627993
      ],
      [
        "▁cru",
        -9.629777683240789
      ],
      [
        "likely",
        -9.630641956899671
      ],
      [
        "▁perfect",
        -9.630938081488368
      ],
      [
        "တၟံ",
        -9.631374122542793
      ],
      [
        "▁layer",
        -9.632064993885727
      ],
      [
        "▁animal",
        -9.633221644312647
      ],
      [
        "ဗွဲမဂၠိုၚ်",
        -9.633359633290917
      ],
      [
        "▁answer",
        -9.634063833515519
      ],
      [
        "▁New",
        -9.634602426892926
      ],
      [
        "▁collect",
        -9.63502173207618
      ],
      [
        "▁ယြဴ",
        -9.635061023483326
      ],
      [
        "nother",
        -9.635291652347648
      ],
      [
        "ညးဍုၚ်ကွာန်",
        -9.635934239551785
      ],
      [
        "▁သွဟ်",
        -9.63684116987358
      ],
      [
        "ဟေင်",
        -9.637015865183521
      ],
      [
        "သေံ",
        -9.637159948710673
      ],
      [
        "▁plants",
        -9.637985348381644
      ],
      [
        "မွဲသာ်",
        -9.63809978463453
      ],
      [
        "▁သၟာန်",
        -9.63815535747865
      ],
      [
        "age",
        -9.638455364076531
      ],
      [
        "▁dai",
        -9.638991982913396
      ],
      [
        "▁သ္ၚိ",
        -9.640286842730186
      ],
      [
        "▁12",
        -9.640485993260661
      ],
      [
        "ထပ်",
        -9.640503785890377
      ],
      [
        "▁room",
        -9.640801871963308
      ],
      [
        "၁။",
        -9.641671119212372
      ],
      [
        "▁self-",
        -9.64210859815557
      ],
      [
        "▁writing",
        -9.642219114730791
      ],
      [
        "ဆာန်",
        -9.643447442762062
      ],
      [
        "▁house",
        -9.643541520512303
      ],
      [
        "တံလေဝ်",
        -9.643563803993532
      ],
      [
        "ပိုယ်",
        -9.644083778627458
      ],
      [
        "သဳကၠဳ",
        -9.644299961955833
      ],
      [
        "▁ကဏ္ဍ",
        -9.644990603893593
      ],
      [
        "▁ဩဝ်",
        -9.644993117584242
      ],
      [
        "▁ဗက်",
        -9.645038379771936
      ],
      [
        "▁blue",
        -9.645917862847423
      ],
      [
        "မာဲ",
        -9.645941092705424
      ],
      [
        "ized",
        -9.64735645765605
      ],
      [
        "▁village",
        -9.647573220750584
      ],
      [
        "B",
        -9.647650961058908
      ],
      [
        "▁relationships",
        -9.648282711556783
      ],
      [
        "ချပ်",
        -9.64835121992002
      ],
      [
        "▁communicate",
        -9.648854622581645
      ],
      [
        "Syn",
        -9.649202402495103
      ],
      [
        "dditional",
        -9.649369877212607
      ],
      [
        "မွဲရ။",
        -9.649553764395007
      ],
      [
        "ရး",
        -9.649640479824583
      ],
      [
        "မူ",
        -9.64979795388749
      ],
      [
        "▁tax",
        -9.650139702717187
      ],
      [
        "▁application",
        -9.650761467937675
      ],
      [
        "▁well-",
        -9.65253981569844
      ],
      [
        "▁poe",
        -9.653798140056457
      ],
      [
        "related",
        -9.653908682192014
      ],
      [
        "မၞုံ",
        -9.654060156399169
      ],
      [
        "▁late",
        -9.654352927309734
      ],
      [
        "▁further",
        -9.656381239318712
      ],
      [
        "၈၃",
        -9.656810226941083
      ],
      [
        "ယာတ်",
        -9.657080327496837
      ],
      [
        "▁low",
        -9.658332415523265
      ],
      [
        "▁ဝှ်",
        -9.658679734349741
      ],
      [
        "▁science",
        -9.658903678059952
      ],
      [
        "▁ဂပ်ဝ်",
        -9.659072205682842
      ],
      [
        "▁ဇြဟတ်",
        -9.659759776235578
      ],
      [
        "▁stock",
        -9.660362477985348
      ],
      [
        "▁ingredients",
        -9.660752910080856
      ],
      [
        "▁ဂရၚ်ပတီ",
        -9.661283582739781
      ],
      [
        "▁successful",
        -9.662240482053083
      ],
      [
        "tools",
        -9.662419229765675
      ],
      [
        "လတူ",
        -9.662911101459802
      ],
      [
        "▁setting",
        -9.664507538736064
      ],
      [
        "▁fuel",
        -9.666220404416254
      ],
      [
        "ပင်",
        -9.666297638370462
      ],
      [
        "▁အာယုက်",
        -9.666341433812914
      ],
      [
        "▁ခမဳဂမၠိုၚ်",
        -9.666914408992266
      ],
      [
        "▁square",
        -9.667249295332212
      ],
      [
        "▁planet",
        -9.667568409753816
      ],
      [
        "▁ဂွံတီကေတ်",
        -9.667609507055985
      ],
      [
        "▁၁၁",
        -9.667971177142839
      ],
      [
        "▁fresh",
        -9.668645763199036
      ],
      [
        "▁expression",
        -9.668885400736702
      ],
      [
        "လ်",
        -9.670550412911261
      ],
      [
        "တွေ",
        -9.672480280301388
      ],
      [
        "ဒဒှ်",
        -9.672518241061095
      ],
      [
        "(ဝါ)",
        -9.672692673305422
      ],
      [
        "▁piece",
        -9.673334720980737
      ],
      [
        "▁strength",
        -9.673761563397235
      ],
      [
        "▁release",
        -9.673805027365766
      ],
      [
        "▁read",
        -9.674249960365517
      ],
      [
        "▁Python",
        -9.675996664485082
      ],
      [
        "စိၚ်",
        -9.677655941092738
      ],
      [
        "▁ကျာ်တြဲ",
        -9.678315598934336
      ],
      [
        "ရေ",
        -9.678487756929645
      ],
      [
        "▁ကလေင်",
        -9.67856419891427
      ],
      [
        "▁personaliz",
        -9.678617909155994
      ],
      [
        "▁oil",
        -9.67868690592963
      ],
      [
        "ကဵုဒှ်",
        -9.679599488817082
      ],
      [
        "လမျီု",
        -9.680004358376033
      ],
      [
        "▁economy",
        -9.680529204383173
      ],
      [
        "▁harm",
        -9.680869284156284
      ],
      [
        "ကုန်၏။",
        -9.680899613582667
      ],
      [
        "▁ground",
        -9.681556354472603
      ],
      [
        "▁trend",
        -9.681800295883487
      ],
      [
        "▁man",
        -9.68225807355914
      ],
      [
        "သာ်",
        -9.68306238918381
      ],
      [
        "▁express",
        -9.68314564980248
      ],
      [
        "▁American",
        -9.683920651833505
      ],
      [
        "ု",
        -9.683992426113054
      ],
      [
        "▁ဂၞန်",
        -9.684041892409297
      ],
      [
        "▁Do",
        -9.684609332127202
      ],
      [
        "▁ပ္ဍဲဒေသ",
        -9.68469247306454
      ],
      [
        "ပံက်",
        -9.684825473812491
      ],
      [
        "▁interact",
        -9.684853197629353
      ],
      [
        "ဟွံမာန်",
        -9.68488669695959
      ],
      [
        "စိ",
        -9.685875118083201
      ],
      [
        "▁position",
        -9.686309109181671
      ],
      [
        "ough",
        -9.686449255773102
      ],
      [
        "ပြ",
        -9.687362678005208
      ],
      [
        "▁surface",
        -9.687795507903271
      ],
      [
        "▁programming",
        -9.688228387067543
      ],
      [
        "ပရေင်ဍုင်ကွာန်",
        -9.68866908317262
      ],
      [
        "▁(လိက်",
        -9.68867665738819
      ],
      [
        "▁ဖ",
        -9.689385756589033
      ],
      [
        "▁drive",
        -9.689970628353203
      ],
      [
        "▁problems",
        -9.690183342798495
      ],
      [
        "▁here",
        -9.690332931590294
      ],
      [
        "▁card",
        -9.690983891065862
      ],
      [
        "▁အဲဍိက်",
        -9.69159685622429
      ],
      [
        "ဏအ်ဝွံ",
        -9.691921953646006
      ],
      [
        "▁သၞောတ်ဝ်",
        -9.692144606024911
      ],
      [
        "မည်",
        -9.692723931395872
      ],
      [
        "▁ဣဝွံ",
        -9.692844072422686
      ],
      [
        "▁ညာတ်",
        -9.693114361563534
      ],
      [
        "F",
        -9.693227630963179
      ],
      [
        "▁\"I",
        -9.693562015638811
      ],
      [
        "vt.vi",
        -9.693584795272416
      ],
      [
        "တအ်လေဝ်",
        -9.695008177373957
      ],
      [
        "▁period",
        -9.695203148998207
      ],
      [
        "▁Add",
        -9.695667996143563
      ],
      [
        "▁ပ္ဍဲအခိင်",
        -9.69612350275657
      ],
      [
        "ဂၠာဲ",
        -9.696895154789985
      ],
      [
        "▁database",
        -9.697105856745551
      ],
      [
        "သဝ်",
        -9.69717285502663
      ],
      [
        "nt",
        -9.697498146198036
      ],
      [
        "▁Final",
        -9.698707346762399
      ],
      [
        "ဗောဓိသတ်",
        -9.699165554063159
      ],
      [
        "▁Whi",
        -9.699861697320447
      ],
      [
        "▁sales",
        -9.700061213395308
      ],
      [
        "စၟတ်သမ္တီ",
        -9.700122729100581
      ],
      [
        "▁force",
        -9.700848589376898
      ],
      [
        "အပ္ဍဲ",
        -9.701175062093482
      ],
      [
        "ညးသ္ကံ",
        -9.702374445647111
      ],
      [
        "▁needed",
        -9.704479555645513
      ],
      [
        "▁too",
        -9.704614090203345
      ],
      [
        "▁ကဆံင်",
        -9.70491454994518
      ],
      [
        "▁members",
        -9.70502207517336
      ],
      [
        "▁ဒးအာပတ်ဒုက္ကဋ်",
        -9.705387044402624
      ],
      [
        "▁hope",
        -9.70562644327413
      ],
      [
        "▁ဟု",
        -9.706088123308263
      ],
      [
        "aid",
        -9.706348617536534
      ],
      [
        "▁red",
        -9.706359124710158
      ],
      [
        "&",
        -9.707130219732399
      ],
      [
        "▁safe",
        -9.707166705327918
      ],
      [
        "လွဳ",
        -9.707282997730228
      ],
      [
        "▁World",
        -9.708959184778
      ],
      [
        "ဂိတု",
        -9.710569215724515
      ],
      [
        "up",
        -9.711271419809432
      ],
      [
        "▁Data",
        -9.711997930513228
      ],
      [
        "▁dark",
        -9.713813634941502
      ],
      [
        "ယ်",
        -9.715116491223721
      ],
      [
        "▁colors",
        -9.715152650351355
      ],
      [
        "▁pre",
        -9.71547846387525
      ],
      [
        "ညးမ",
        -9.716544219381053
      ],
      [
        "▁သၟိင်",
        -9.717262601702913
      ],
      [
        "▁report",
        -9.717644912137665
      ],
      [
        "▁ပွိုင်ဍုင်",
        -9.718126479250426
      ],
      [
        "တရဴ",
        -9.71849203586379
      ],
      [
        "ies,",
        -9.718699402690046
      ],
      [
        "လ္ၚတ်",
        -9.719107188447701
      ],
      [
        "▁ဝေါဟာရ",
        -9.719433290630079
      ],
      [
        "လၟိဟ်",
        -9.720871292297916
      ],
      [
        "▁ဥက္ကဌ",
        -9.721697506941016
      ],
      [
        "▁relationship",
        -9.722311686073773
      ],
      [
        "▁date",
        -9.722973197642947
      ],
      [
        "▁flow",
        -9.723053037553957
      ],
      [
        "ကလေၚ်",
        -9.724923092713615
      ],
      [
        "▁context",
        -9.725481426881789
      ],
      [
        "▁suit",
        -9.72590577635486
      ],
      [
        "ur",
        -9.726148769676332
      ],
      [
        "▁hot",
        -9.727337447887843
      ],
      [
        "▁ဟွံဒှ်",
        -9.72853634439614
      ],
      [
        "(မ်)",
        -9.729208161462822
      ],
      [
        "▁ex",
        -9.72946098524113
      ],
      [
        "▁verb",
        -9.730969102415735
      ],
      [
        "▁ဗီုကဵု",
        -9.731676552619271
      ],
      [
        "▁ဤ",
        -9.731982060893715
      ],
      [
        "ကုန်",
        -9.732380348242655
      ],
      [
        "ေ",
        -9.732447136623264
      ],
      [
        "▁ပရေင်ပိုန်ဒြပ်",
        -9.73273245462179
      ],
      [
        "▁feature",
        -9.733065939950615
      ],
      [
        "ဇကု။",
        -9.733450552672323
      ],
      [
        "H",
        -9.734497923502953
      ],
      [
        "▁US",
        -9.734942511036447
      ],
      [
        "▁၇",
        -9.735342967820085
      ],
      [
        "▁“(",
        -9.73535100329944
      ],
      [
        "ရာန်",
        -9.73626200746255
      ],
      [
        "ion,",
        -9.737311849163179
      ],
      [
        "vi.",
        -9.737367233692677
      ],
      [
        "မွဲတုဲ",
        -9.739090863606169
      ],
      [
        "▁description",
        -9.739259953093164
      ],
      [
        "▁meal",
        -9.739678015934214
      ],
      [
        "ဖြစ်သည်။",
        -9.73988071407284
      ],
      [
        "▁ကတဵုဒှ်",
        -9.742299272563223
      ],
      [
        "▁near",
        -9.743494279382842
      ],
      [
        "▁engine",
        -9.744581133837816
      ],
      [
        "▁War",
        -9.744711642753478
      ],
      [
        "ကလိဂွံ",
        -9.744775976708436
      ],
      [
        "▁adventure",
        -9.747211539106369
      ],
      [
        "စွာ",
        -9.747374313620202
      ],
      [
        "ကၠုၚ်လဝ်",
        -9.747790552941453
      ],
      [
        "▁white",
        -9.748045574666577
      ],
      [
        "▁[P",
        -9.748922562935189
      ],
      [
        "▁enhance",
        -9.74923594346922
      ],
      [
        "▁leave",
        -9.749488252626321
      ],
      [
        "▁စက်",
        -9.749596233964425
      ],
      [
        "▁ယွံကောန်တၠ",
        -9.749946550618796
      ],
      [
        "▁Design",
        -9.750925752352853
      ],
      [
        "▁အဓိပ္ပါယ်",
        -9.751276937762064
      ],
      [
        "▁အစာ",
        -9.751333503388697
      ],
      [
        "▁encourage",
        -9.751490360529004
      ],
      [
        "▁study",
        -9.75158408464265
      ],
      [
        "▁0",
        -9.752053387438266
      ],
      [
        "▁cool",
        -9.753177999462313
      ],
      [
        "▁connect",
        -9.753432959943062
      ],
      [
        "▁production",
        -9.754052707580078
      ],
      [
        "ရောၚ်ဂှ်",
        -9.754541127191874
      ],
      [
        "▁constant",
        -9.754809004673636
      ],
      [
        "မ်",
        -9.755400541154977
      ],
      [
        "d,",
        -9.75610987720923
      ],
      [
        "သီ",
        -9.756263334473656
      ],
      [
        "စှ်",
        -9.756445639096945
      ],
      [
        "အိုတ်တုဲ",
        -9.756753243839345
      ],
      [
        "ကဆံၚ်",
        -9.756797286702298
      ],
      [
        "▁သာ်ဏံ",
        -9.75779546579262
      ],
      [
        "▁far",
        -9.760194729246697
      ],
      [
        "▁adapt",
        -9.760367613099099
      ],
      [
        "နဲကဲ",
        -9.761025684803293
      ],
      [
        "သိ",
        -9.763003713190926
      ],
      [
        "▁device",
        -9.763406848219399
      ],
      [
        "▁fun",
        -9.763499534621692
      ],
      [
        "ဂၠးတိ",
        -9.763566412275125
      ],
      [
        "▁မရနုက်ကဵု",
        -9.763803905717896
      ],
      [
        "ပၠန်ဂတး",
        -9.764399665053151
      ],
      [
        "ဗၞတ်",
        -9.764544986692322
      ],
      [
        "▁mix",
        -9.764698706779798
      ],
      [
        "ကော",
        -9.764806663635497
      ],
      [
        "တုပ်",
        -9.765278274768637
      ],
      [
        "ညံၚ်ရဴ",
        -9.766014191301544
      ],
      [
        "3",
        -9.766329133846003
      ],
      [
        "▁strategy",
        -9.766776744988181
      ],
      [
        "trained",
        -9.768685480580448
      ],
      [
        "သင်",
        -9.769003975148992
      ],
      [
        "ဓါတ်",
        -9.770055870134943
      ],
      [
        "▁bright",
        -9.770215170067189
      ],
      [
        "▁ဗြဴ",
        -9.770996724895202
      ],
      [
        "▁dis",
        -9.771966754411025
      ],
      [
        "▁mobile",
        -9.772449988529523
      ],
      [
        "▁numer",
        -9.772835032680465
      ],
      [
        "▁experiences",
        -9.772872222013639
      ],
      [
        "▁ဒးဒုင်",
        -9.77349932142466
      ],
      [
        "သဘာဝ",
        -9.774025919744757
      ],
      [
        "▁၁၄",
        -9.774248748463041
      ],
      [
        "▁distance",
        -9.774911819759165
      ],
      [
        "အဓိက",
        -9.775056954062485
      ],
      [
        "▁campaign",
        -9.775425981280133
      ],
      [
        "တဳ",
        -9.776964110002734
      ],
      [
        "▁<",
        -9.777148158856452
      ],
      [
        "▁ocean",
        -9.777408367411308
      ],
      [
        "▁dataset",
        -9.777607672330436
      ],
      [
        "▁နဒဒှ်မ",
        -9.777914021908607
      ],
      [
        "ဇုက်",
        -9.777949883730487
      ],
      [
        "▁လက်",
        -9.778331361890961
      ],
      [
        "▁ကမ္မတဳ",
        -9.779002897940583
      ],
      [
        "▁organization",
        -9.779452466465184
      ],
      [
        "little",
        -9.77954621864816
      ],
      [
        "▁သၞောဝ်",
        -9.779733091767568
      ],
      [
        "သွား",
        -9.780309526885896
      ],
      [
        "▁addition",
        -9.780922499110812
      ],
      [
        "▁today",
        -9.78383007896985
      ],
      [
        "▁automat",
        -9.784850989891849
      ],
      [
        "G",
        -9.78527855077516
      ],
      [
        "▁single",
        -9.785449089160393
      ],
      [
        "အကာဲအရာ",
        -9.7854759102452
      ],
      [
        "နွံတုဲ",
        -9.785561975992822
      ],
      [
        "▁shopping",
        -9.785666563982076
      ],
      [
        "▁balance",
        -9.786248151097176
      ],
      [
        "ဂး။",
        -9.787042308455362
      ],
      [
        "▁မဒး",
        -9.787554021860714
      ],
      [
        "▁engage",
        -9.787718809644186
      ],
      [
        "ဟွံသေၚ်",
        -9.787887909227909
      ],
      [
        "▁music",
        -9.787979552345327
      ],
      [
        "ဝတ်",
        -9.790179785691219
      ],
      [
        "ဗဟဵု",
        -9.790258128813324
      ],
      [
        "▁ask",
        -9.790540067666907
      ],
      [
        "▁hours",
        -9.790642329586149
      ],
      [
        "▁base",
        -9.792164743262692
      ],
      [
        "ist",
        -9.79235301725875
      ],
      [
        "နန်",
        -9.792766104269218
      ],
      [
        "▁slow",
        -9.793404133983433
      ],
      [
        "▁ကုတဳလမၞုံပိုဉ်",
        -9.7950601371063
      ],
      [
        "▁At",
        -9.795465126377813
      ],
      [
        "comes",
        -9.795509890134369
      ],
      [
        "▁ပွိုၚ်",
        -9.79565460925491
      ],
      [
        "▁(P",
        -9.796911660706758
      ],
      [
        "line",
        -9.799245538554443
      ],
      [
        "▁student",
        -9.800007130867517
      ],
      [
        "▁အာစိုပ်",
        -9.800134099495384
      ],
      [
        "▁Social",
        -9.800270258266
      ],
      [
        "ဇၞော်ဇၞော်",
        -9.80102775010166
      ],
      [
        "▁Whe",
        -9.801733655610501
      ],
      [
        "▁တင်",
        -9.802163814215074
      ],
      [
        "▁Fro",
        -9.802244244912758
      ],
      [
        "creased",
        -9.80228128772721
      ],
      [
        "▁traffic",
        -9.802688868381459
      ],
      [
        "ကိစ္စ",
        -9.80313630919763
      ],
      [
        "written",
        -9.803807817268716
      ],
      [
        "▁pass",
        -9.80500139058296
      ],
      [
        "▁(၈)",
        -9.806920283554394
      ],
      [
        "▁road",
        -9.808222490133852
      ],
      [
        "▁practice",
        -9.808317841504646
      ],
      [
        "ent",
        -9.80841609836483
      ],
      [
        "dvanced",
        -9.80853098302632
      ],
      [
        "▁ကၠောန်ဗဒှ်",
        -9.809057238205089
      ],
      [
        "ချိုတ်",
        -9.809210924799743
      ],
      [
        "▁ဍေံတံ",
        -9.8097026053733
      ],
      [
        "▁19",
        -9.809714115392346
      ],
      [
        "▁stand",
        -9.809717294509294
      ],
      [
        "greater",
        -9.810045617174424
      ],
      [
        "▁trees",
        -9.81108194741978
      ],
      [
        "safety",
        -9.812368202961538
      ],
      [
        "uggest",
        -9.812546437382611
      ],
      [
        "▁argument",
        -9.812848660362153
      ],
      [
        "▁storage",
        -9.813112869659015
      ],
      [
        "ခြင်း။",
        -9.813154686102845
      ],
      [
        "▁ပၞာန်",
        -9.813647780252067
      ],
      [
        "▁accuracy",
        -9.81367592609816
      ],
      [
        "လ္ပ",
        -9.814552497969277
      ],
      [
        "time,",
        -9.814556318117292
      ],
      [
        "ယျ",
        -9.817697030703476
      ],
      [
        "ဝါတ်",
        -9.819034579413307
      ],
      [
        "▁blood",
        -9.819282967822083
      ],
      [
        "သ်",
        -9.81931352818031
      ],
      [
        "eep",
        -9.819405248742264
      ],
      [
        "တြုံ",
        -9.81985035848453
      ],
      [
        "▁hold",
        -9.819865939529222
      ],
      [
        "▁pro",
        -9.820718881022792
      ],
      [
        "▁practices",
        -9.821217692993713
      ],
      [
        "▁everyone",
        -9.821466150679413
      ],
      [
        "အာ။",
        -9.821806523586815
      ],
      [
        "▁က္တဵုဒှ်",
        -9.823426625084945
      ],
      [
        "▁attention",
        -9.823492635129854
      ],
      [
        "▁million",
        -9.82349935018562
      ],
      [
        "ဖအိုတ်",
        -9.823569788758103
      ],
      [
        "▁(၁၀)",
        -9.824136378625589
      ],
      [
        "ism",
        -9.824578954796898
      ],
      [
        "▁contrast",
        -9.82544202726379
      ],
      [
        "▁recipe",
        -9.825471888106891
      ],
      [
        "▁title",
        -9.825483136924216
      ],
      [
        "ပြဟ်",
        -9.82558295336726
      ],
      [
        "▁ကော်",
        -9.825873975118798
      ],
      [
        "u",
        -9.826570697460209
      ],
      [
        "▁disease",
        -9.826675847450343
      ],
      [
        "ဏီရ။",
        -9.826914915632488
      ],
      [
        "သဖြင့်",
        -9.826961130152544
      ],
      [
        "ပုၚ်",
        -9.828643652831214
      ],
      [
        "beauty",
        -9.829634399140424
      ],
      [
        "▁ဌာန",
        -9.829711623013612
      ],
      [
        "▁hear",
        -9.830184324186442
      ],
      [
        "▁programs",
        -9.830706343021552
      ],
      [
        "▁matter",
        -9.830741019442886
      ],
      [
        "NCA",
        -9.830868527609734
      ],
      [
        "▁(၆)",
        -9.83144108036981
      ],
      [
        "▁“ထို",
        -9.831964789990604
      ],
      [
        "▁ဂကူမန်",
        -9.832963330013223
      ],
      [
        "အာ၊",
        -9.833472335323275
      ],
      [
        "refore",
        -9.8336684403508
      ],
      [
        "သၟဝ်",
        -9.83375552807505
      ],
      [
        "လဳ",
        -9.834080471335344
      ],
      [
        "▁platform",
        -9.834820276597682
      ],
      [
        "▁mean",
        -9.834886725294279
      ],
      [
        "ဟိုတ်",
        -9.835292895424542
      ],
      [
        "▁contain",
        -9.835579755564016
      ],
      [
        "▁going",
        -9.836203625956678
      ],
      [
        "ia",
        -9.836732374968104
      ],
      [
        "▁associat",
        -9.837460835273891
      ],
      [
        "▁budget",
        -9.838075955523985
      ],
      [
        "▁9",
        -9.838796816211925
      ],
      [
        "▁document",
        -9.839121394762008
      ],
      [
        "▁productivity",
        -9.84022403229757
      ],
      [
        "ဗှ်ေ",
        -9.840584419715839
      ],
      [
        "▁vegetables",
        -9.840926609722727
      ],
      [
        "ဝ်",
        -9.841201582497558
      ],
      [
        "တၠပညာ",
        -9.841871440104203
      ],
      [
        "အောန်",
        -9.842262383130649
      ],
      [
        "types",
        -9.842403363683506
      ],
      [
        "မိမ",
        -9.842629481988336
      ],
      [
        "မ္ၚး",
        -9.843517422381
      ],
      [
        "ယဝ်",
        -9.843786347766795
      ],
      [
        "ဒါန်",
        -9.844030522059366
      ],
      [
        "▁rest",
        -9.84418453642748
      ],
      [
        "▁choice",
        -9.8444586140324
      ],
      [
        "▁Us",
        -9.844696133719602
      ],
      [
        "▁actions",
        -9.844776259631647
      ],
      [
        "▁interest",
        -9.845423724689013
      ],
      [
        "ရောင်။",
        -9.84599071355008
      ],
      [
        "ate",
        -9.846281458138286
      ],
      [
        "သည့်",
        -9.846599371907557
      ],
      [
        "responsible",
        -9.846602406605506
      ],
      [
        "ကအ်",
        -9.84682239592448
      ],
      [
        "ကၠာ၊",
        -9.847227110116316
      ],
      [
        "▁convert",
        -9.847518882403502
      ],
      [
        "goals",
        -9.847559781594502
      ],
      [
        "ရ-",
        -9.847580304551746
      ],
      [
        "▁cover",
        -9.84760522684503
      ],
      [
        "ဘ",
        -9.847918582693733
      ],
      [
        "ies.",
        -9.84863854161603
      ],
      [
        "▁ယွံတဳလပိုဉ်",
        -9.848642767173162
      ],
      [
        "ကီုတုဲ",
        -9.85070621049085
      ],
      [
        "▁variable",
        -9.850856229668135
      ],
      [
        "ရုၚ်",
        -9.851084294578403
      ],
      [
        "▁Machine",
        -9.851112011644414
      ],
      [
        "S",
        -9.852435908617252
      ],
      [
        "▁First",
        -9.853219910567448
      ],
      [
        "▁ဒက်ပ္တန်",
        -9.853234643049937
      ],
      [
        "▁yourself",
        -9.854718777235824
      ],
      [
        "ကောန်ၚာ်",
        -9.854775923274477
      ],
      [
        "▁ကျာ်ဇၞော်အ္စာ",
        -9.856061072626218
      ],
      [
        "▁recognition",
        -9.857347005727178
      ],
      [
        "levels",
        -9.857702439091625
      ],
      [
        "သ္",
        -9.857880925160355
      ],
      [
        "▁everything",
        -9.859585343806145
      ],
      [
        "ဇကု၊",
        -9.860196629877297
      ],
      [
        "ၚုဟ်",
        -9.860323203928857
      ],
      [
        "ပုံ",
        -9.861015444288743
      ],
      [
        "ဒပ်ပၞာန်",
        -9.861037336419354
      ],
      [
        "က္တဵုဒှ်",
        -9.861815808114951
      ],
      [
        "ဗွဲ",
        -9.862266464282964
      ],
      [
        "ဗီုပြၚ်",
        -9.862455452899475
      ],
      [
        "▁meeting",
        -9.862518572120852
      ],
      [
        "ပူဂဵု",
        -9.863003777762327
      ],
      [
        "processes",
        -9.863820025933574
      ],
      [
        "▁ညးတာလျိုၚ်",
        -9.86385205139258
      ],
      [
        "ities",
        -9.863941884749512
      ],
      [
        "▁ဗီုပြၚ်",
        -9.86465830332324
      ],
      [
        ">",
        -9.865999784959143
      ],
      [
        "▁appear",
        -9.866080052469385
      ],
      [
        "သေ",
        -9.86626225616933
      ],
      [
        "▁response",
        -9.866562981581918
      ],
      [
        "▁ဟိုတ်နူကဵု",
        -9.866648837309153
      ],
      [
        "ဂးတုဲ",
        -9.866858457526153
      ],
      [
        "▁plastic",
        -9.867036078289999
      ],
      [
        "▁electric",
        -9.867077339418717
      ],
      [
        "▁leas",
        -9.867123791906774
      ],
      [
        "▁အခေါၚ်",
        -9.867820417923868
      ],
      [
        "▁ရပ်",
        -9.868377625702179
      ],
      [
        "ဗှ်",
        -9.86904311034072
      ],
      [
        "သား",
        -9.869197085953344
      ],
      [
        "}.",
        -9.870016784759182
      ],
      [
        "ဒြဟတ်",
        -9.870066900534962
      ],
      [
        "▁sub",
        -9.870146362724777
      ],
      [
        "သၞောတ်",
        -9.870223148772526
      ],
      [
        "အိုတ်ညိ",
        -9.870594092502376
      ],
      [
        "▁secure",
        -9.871318985589706
      ],
      [
        "to",
        -9.872011450706939
      ],
      [
        "▁ဒုၚ်",
        -9.872047713412066
      ],
      [
        "▁select",
        -9.872254306635579
      ],
      [
        "▁ကဵုအခေါၚ်",
        -9.873418658578
      ],
      [
        "▁technologies",
        -9.873712572567932
      ],
      [
        "ဒ္ဂေတ်",
        -9.874055079108295
      ],
      [
        "▁times",
        -9.874309482372492
      ],
      [
        "တဝ်",
        -9.874483298497399
      ],
      [
        "▁(၇)",
        -9.875062965682602
      ],
      [
        "စဴ",
        -9.87538780231976
      ],
      [
        "▁once",
        -9.877698127823919
      ],
      [
        "▁letter",
        -9.87927804469088
      ],
      [
        "man",
        -9.881620450077516
      ],
      [
        "▁investment",
        -9.881813510374341
      ],
      [
        "▁root",
        -9.882552854283562
      ],
      [
        "▁fire",
        -9.882929407051904
      ],
      [
        "▁mass",
        -9.88360509906725
      ],
      [
        "စေ",
        -9.883625585573094
      ],
      [
        "▁၁၇",
        -9.884275777962184
      ],
      [
        "▁ဗွဝ်ကၠံ",
        -9.884831298551072
      ],
      [
        "ဳ",
        -9.885157814585106
      ],
      [
        "အံၚ်",
        -9.885574172826239
      ],
      [
        "▁believe",
        -9.885637628128979
      ],
      [
        "▁environmental",
        -9.886148175199276
      ],
      [
        "▁limit",
        -9.886178741074595
      ],
      [
        "light",
        -9.886352891548835
      ],
      [
        "▁beautiful",
        -9.887027183389366
      ],
      [
        "▁sugar",
        -9.887082594790481
      ],
      [
        "▁deliver",
        -9.887300377835153
      ],
      [
        "ယူ",
        -9.88768672816205
      ],
      [
        "▁days",
        -9.8891202507082
      ],
      [
        "▁influence",
        -9.889137630885564
      ],
      [
        "▁robot",
        -9.891105621835806
      ],
      [
        "နိုင်",
        -9.891307904461033
      ],
      [
        "ကောံဓရီု",
        -9.8916952604476
      ],
      [
        "▁park",
        -9.891764319946368
      ],
      [
        "ဒဒိုက်",
        -9.892268379627964
      ],
      [
        "ဆဵု",
        -9.893145285329005
      ],
      [
        "▁co",
        -9.893555478206265
      ],
      [
        "ကွဳ",
        -9.894013904714349
      ],
      [
        "A",
        -9.894407082662507
      ],
      [
        "▁ဃော",
        -9.894992141917328
      ],
      [
        "ရှိသော",
        -9.895057685779642
      ],
      [
        "ပြဲ",
        -9.895083200761782
      ],
      [
        "▁friend",
        -9.895386901101727
      ],
      [
        "အဝဵု",
        -9.895409119007837
      ],
      [
        "▁since",
        -9.896234015443447
      ],
      [
        "▁ရေ",
        -9.896446993015603
      ],
      [
        "ပ္ကဴ",
        -9.898175003844234
      ],
      [
        "▁rice",
        -9.898419934982254
      ],
      [
        "came",
        -9.89851980869286
      ],
      [
        "ခေတ်",
        -9.89900756084442
      ],
      [
        "တုဲတှေ်",
        -9.900141795288256
      ],
      [
        "▁ယာတ်",
        -9.900956274991724
      ],
      [
        "ကီုရ၊",
        -9.901337356497322
      ],
      [
        "+",
        -9.902285217577834
      ],
      [
        "▁big",
        -9.902364561134927
      ],
      [
        "▁painting",
        -9.903387064700265
      ],
      [
        "▁critical",
        -9.903676638177576
      ],
      [
        "▁fact",
        -9.90431302766116
      ],
      [
        "ကဵုဒါန်",
        -9.904446409007335
      ],
      [
        "တၟေၚ်",
        -9.905691585123353
      ],
      [
        "▁မူ",
        -9.905851855212973
      ],
      [
        "▁GPT",
        -9.9075165812414
      ],
      [
        "▁exist",
        -9.9076568053342
      ],
      [
        "ၜဳ",
        -9.908460230778292
      ],
      [
        "▁bas",
        -9.908970657979637
      ],
      [
        "ဖြစ်",
        -9.908993932983051
      ],
      [
        "တၞဟ်",
        -9.909349031661801
      ],
      [
        "ဗဵု",
        -9.909551793880759
      ],
      [
        "မွဲစွံ",
        -9.909856376097483
      ],
      [
        "▁think",
        -9.909909182277747
      ],
      [
        "ok",
        -9.909961571985516
      ],
      [
        "လျှင်",
        -9.910409744078692
      ],
      [
        "▁ဂကောံမၞိဟ်",
        -9.910524225843886
      ],
      [
        "▁war",
        -9.910759116827176
      ],
      [
        "▁insight",
        -9.910828659519122
      ],
      [
        "ious",
        -9.911206365665699
      ],
      [
        "▁ဒဵု",
        -9.911333252941066
      ],
      [
        "၅။",
        -9.912094603851433
      ],
      [
        "စၟဳစၟတ်",
        -9.91275139121926
      ],
      [
        "spite",
        -9.912810213795744
      ],
      [
        "သ္ဒး",
        -9.91303015381828
      ],
      [
        "▁predictions",
        -9.913066181440412
      ],
      [
        "▁above",
        -9.913438213580495
      ],
      [
        "ဘာဂိုဏ်ရာမညနိကာယ",
        -9.914160808354522
      ],
      [
        "enable",
        -9.915097477458016
      ],
      [
        "ညးတၞဟ်",
        -9.915468161373589
      ],
      [
        "3)",
        -9.91548716530373
      ],
      [
        "တံဂှ်လေဝ်",
        -9.915761944158968
      ],
      [
        "ဂှ်ကီု",
        -9.916530246881422
      ],
      [
        "ဝိ",
        -9.917313636186236
      ],
      [
        "တမ်",
        -9.917442259647887
      ],
      [
        "▁modern",
        -9.917581594760492
      ],
      [
        "▁ပရေၚ်ဍုၚ်ကွာန်",
        -9.917604920766848
      ],
      [
        "P",
        -9.91907589354497
      ],
      [
        "▁center",
        -9.91915453040598
      ],
      [
        "▁solutions",
        -9.921282095268962
      ],
      [
        "စၟတ်",
        -9.922521484223942
      ],
      [
        "▁manner",
        -9.924543820221706
      ],
      [
        "ဖြစ်သော",
        -9.924598912980171
      ],
      [
        "ing:",
        -9.925219740270814
      ],
      [
        "seem",
        -9.925226558865834
      ],
      [
        "▁valuable",
        -9.926655287546577
      ],
      [
        "▁15",
        -9.926825225421407
      ],
      [
        "▁note",
        -9.927088758401965
      ],
      [
        "ပ္",
        -9.927988859157328
      ],
      [
        "▁convey",
        -9.928043855054643
      ],
      [
        "▁achiev",
        -9.928104142493163
      ],
      [
        "▁pressure",
        -9.928321323600773
      ],
      [
        "▁မၞိဟ်မ",
        -9.928770955440115
      ],
      [
        "▁သွက်သ္ဂောံ",
        -9.929239650166497
      ],
      [
        "▁path",
        -9.929275156120028
      ],
      [
        "ချ",
        -9.929893719092103
      ],
      [
        "▁သူ",
        -9.930282465491443
      ],
      [
        "Y",
        -9.930449888711284
      ],
      [
        "▁visit",
        -9.930869384078044
      ],
      [
        "ဂၠဴ",
        -9.931040202663056
      ],
      [
        "▁instance",
        -9.931825509152416
      ],
      [
        "ၝောံ",
        -9.931944143284877
      ],
      [
        "▁connection",
        -9.932261509708205
      ],
      [
        "▁treatment",
        -9.932836287593632
      ],
      [
        "il",
        -9.933796726900297
      ],
      [
        "▁neur",
        -9.933838636566914
      ],
      [
        "မဟာ",
        -9.93411337060253
      ],
      [
        "နွံမံၚ်",
        -9.934408082661449
      ],
      [
        "day,",
        -9.934963570318743
      ],
      [
        "▁special",
        -9.935140199427059
      ],
      [
        "က္ၜၚ်",
        -9.935388029901045
      ],
      [
        "▁သၟဝ်",
        -9.935492920859382
      ],
      [
        "▁No",
        -9.935566187137168
      ],
      [
        "▁ကွးဘာ",
        -9.93578767138089
      ],
      [
        "cent",
        -9.936296578126543
      ],
      [
        "▁သဘာဝ",
        -9.936619072822626
      ],
      [
        "▁act",
        -9.937713514797704
      ],
      [
        "▁skill",
        -9.938340920553184
      ],
      [
        "▁formula",
        -9.93865425425561
      ],
      [
        "▁gather",
        -9.939521549753938
      ],
      [
        "▁platforms",
        -9.940181998214758
      ],
      [
        "ဖဵု",
        -9.941105287571542
      ],
      [
        "▁early",
        -9.941127627585939
      ],
      [
        "ဏောၚ်။",
        -9.941323595791651
      ],
      [
        "▁experiment",
        -9.941846779854593
      ],
      [
        "▁adjust",
        -9.94219026935863
      ],
      [
        "▁ဟွံမွဲကဵု",
        -9.942374926168984
      ],
      [
        "မပြဲ",
        -9.942585585494005
      ],
      [
        "မသုန်",
        -9.943824735705345
      ],
      [
        "▁works",
        -9.94394417909789
      ],
      [
        "သ္ဇိုၚ်",
        -9.944180750625897
      ],
      [
        "▁ပ္ဍဲကာလ",
        -9.94447684030228
      ],
      [
        "▁ကောံဓရီု",
        -9.944781930496852
      ],
      [
        "▁၂၁",
        -9.944814912499226
      ],
      [
        "▁India",
        -9.945303926972157
      ],
      [
        "events",
        -9.945659491673833
      ],
      [
        "issues",
        -9.947489974177286
      ],
      [
        "▁objects",
        -9.948168627906703
      ],
      [
        "▁ဍေဟ်",
        -9.948233067089312
      ],
      [
        "သံ",
        -9.948310722694497
      ],
      [
        "▁သၟတ်",
        -9.948385436439255
      ],
      [
        "ဒက်",
        -9.948631991758761
      ],
      [
        "ကြ",
        -9.948829059347347
      ],
      [
        "▁integer",
        -9.948957026237128
      ],
      [
        "the",
        -9.94949231114833
      ],
      [
        "▁whole",
        -9.949700795641473
      ],
      [
        "ကတဵုဒှ်",
        -9.951302380872345
      ],
      [
        "▁news",
        -9.951440977923264
      ],
      [
        "▁say",
        -9.95196131899316
      ],
      [
        "တော",
        -9.952097101134065
      ],
      [
        "▁receive",
        -9.952281454181527
      ],
      [
        "contribute",
        -9.952613317759152
      ],
      [
        "နဲ့",
        -9.95308295536441
      ],
      [
        "▁detail",
        -9.953132737906136
      ],
      [
        "▁draw",
        -9.953438981789288
      ],
      [
        "▁average",
        -9.953627320484667
      ],
      [
        "▁seen",
        -9.95437881750463
      ],
      [
        "driving",
        -9.9551799541779
      ],
      [
        "▁Learning",
        -9.955687692496642
      ],
      [
        "▁ဂဥုဲ",
        -9.9560530887746
      ],
      [
        "▁Start",
        -9.956443028514748
      ],
      [
        "▁ဇရေင်",
        -9.957148950715762
      ],
      [
        "▁gain",
        -9.957153875685746
      ],
      [
        "changing",
        -9.95725647614844
      ],
      [
        "▁သာသနာ",
        -9.957671701297894
      ],
      [
        "▁ဟွံမွဲ",
        -9.95792444370603
      ],
      [
        "▁schedule",
        -9.958090798831762
      ],
      [
        "ဌာန",
        -9.958816460412088
      ],
      [
        "▁stage",
        -9.958831613501937
      ],
      [
        "တၞဟ်ခြာ",
        -9.95963131943681
      ],
      [
        "-time",
        -9.960096487759401
      ],
      [
        "လေး",
        -9.960382373551624
      ],
      [
        "▁deal",
        -9.960563454791025
      ],
      [
        "စာ",
        -9.960693552795254
      ],
      [
        "▁bank",
        -9.960825983130587
      ],
      [
        "ative",
        -9.96140870247407
      ],
      [
        "|",
        -9.961499400535278
      ],
      [
        "▁rich",
        -9.96150287264657
      ],
      [
        "ion.",
        -9.96150878425787
      ],
      [
        "▁စၟတ်သမ္တီ",
        -9.962732840394535
      ],
      [
        "▁fam",
        -9.962865335002416
      ],
      [
        "သၟး",
        -9.96370437340699
      ],
      [
        "filled",
        -9.963973121573822
      ],
      [
        "တွဵုရး",
        -9.96465324726695
      ],
      [
        "▁l",
        -9.96516934409581
      ],
      [
        "▁week",
        -9.965422591348224
      ],
      [
        "looking",
        -9.965475262188429
      ],
      [
        "▁Google",
        -9.966082553222877
      ],
      [
        "လှ",
        -9.966861254120705
      ],
      [
        "ဗလး",
        -9.96688582864208
      ],
      [
        "▁တက်",
        -9.966911836069459
      ],
      [
        "▁အခေါင်",
        -9.96698505320148
      ],
      [
        "▁detect",
        -9.967094290865985
      ],
      [
        "▁similar",
        -9.967262672792465
      ],
      [
        "▁password",
        -9.967624574857522
      ],
      [
        "▁English",
        -9.967683083008136
      ],
      [
        "စား",
        -9.967819814491346
      ],
      [
        "နဲ",
        -9.96887503550788
      ],
      [
        "oxide",
        -9.969271173609066
      ],
      [
        "▁တင်ဂၞင်",
        -9.969719897030183
      ],
      [
        "ဟာ၊",
        -9.970014792923651
      ],
      [
        "▁v",
        -9.97050684762184
      ],
      [
        "▁occur",
        -9.970628873710634
      ],
      [
        "ဗေဒ",
        -9.971145620050713
      ],
      [
        "W",
        -9.971594913190051
      ],
      [
        "▁(M",
        -9.972110557481752
      ],
      [
        "desired",
        -9.972177139820506
      ],
      [
        "တပ်",
        -9.972792320974886
      ],
      [
        "▁ကောန်ဂကူ",
        -9.972960300595862
      ],
      [
        "▁ဗွဲကြဴ",
        -9.97309568569807
      ],
      [
        "▁ပူဂဵု",
        -9.973674042852714
      ],
      [
        "▁thought",
        -9.974459234642632
      ],
      [
        "T",
        -9.974892132966957
      ],
      [
        "ကဲ့သို့",
        -9.97598369231536
      ],
      [
        "လဝ်ရ။",
        -9.975999984379603
      ],
      [
        "▁consequences",
        -9.976445183991874
      ],
      [
        "လွဟ်",
        -9.976682941141366
      ],
      [
        "ရမျှာၚ်",
        -9.977164792358536
      ],
      [
        "သ္ဂုတ်သွာတ်",
        -9.977315351058687
      ],
      [
        "▁st",
        -9.977610864290492
      ],
      [
        "▁star",
        -9.97762526164923
      ],
      [
        "▁ဂၠာဲ",
        -9.978718646635926
      ],
      [
        "▁k",
        -9.978772917351304
      ],
      [
        "စဵုဒၞာ",
        -9.978864988977389
      ],
      [
        "▁ဟွံဒး",
        -9.978921303812793
      ],
      [
        "၀",
        -9.9789707496398
      ],
      [
        "▁count",
        -9.978995248520595
      ],
      [
        "▁eyes",
        -9.979130463312718
      ],
      [
        "▁black",
        -9.979508409203193
      ],
      [
        "ဒါ",
        -9.979931332440763
      ],
      [
        "မၚ်",
        -9.98205779731753
      ],
      [
        "ဍိုက်",
        -9.982372147070231
      ],
      [
        "▁month",
        -9.982420178590731
      ],
      [
        "▁ငါ",
        -9.98248244385225
      ],
      [
        "▁လူ",
        -9.982780712910973
      ],
      [
        "▁eye",
        -9.983807765078586
      ],
      [
        "▁နာဍဳ",
        -9.98390883096343
      ],
      [
        "▁satisfaction",
        -9.983921828427967
      ],
      [
        "ပူ",
        -9.984724304462965
      ],
      [
        "▁opinion",
        -9.985096770365752
      ],
      [
        "အ်",
        -9.985227297012095
      ],
      [
        "▁relax",
        -9.986057670247328
      ],
      [
        "▁ကွတ်",
        -9.986858087931143
      ],
      [
        "ဇကုဂှ်",
        -9.987640345347199
      ],
      [
        "▁combination",
        -9.9876789147633
      ],
      [
        "▁original",
        -9.988293244334006
      ],
      [
        "တစ်",
        -9.988336243852252
      ],
      [
        "လပါ်",
        -9.988414736428393
      ],
      [
        "▁paragraph",
        -9.98907186633923
      ],
      [
        "တိဍာ်",
        -9.989603365580072
      ],
      [
        "▁၁၆",
        -9.990375393586671
      ],
      [
        "ဌာန်",
        -9.99117399004558
      ],
      [
        "▁query",
        -9.991179422424768
      ],
      [
        "▁ပြသၞာ",
        -9.991253705170609
      ],
      [
        "▁computing",
        -9.9912544787333
      ],
      [
        "▁monitor",
        -9.991519604728811
      ],
      [
        "လျး",
        -9.991557348196118
      ],
      [
        "▁humans",
        -9.992063058096573
      ],
      [
        "▁loyal",
        -9.992312509048155
      ],
      [
        "▁လ္ၚတ်",
        -9.992387008250823
      ],
      [
        "▁moon",
        -9.992513572777195
      ],
      [
        "▁active",
        -9.993349297781588
      ],
      [
        "▁player",
        -9.99381967568212
      ],
      [
        "▁principle",
        -9.993826780181092
      ],
      [
        "တဵု",
        -9.993989658935025
      ],
      [
        "ဗတိုက်",
        -9.994141837114187
      ],
      [
        "R",
        -9.994441477156103
      ],
      [
        "စှေ်",
        -9.99511234252293
      ],
      [
        "▁Classif",
        -9.995191017106698
      ],
      [
        "(ယ်)",
        -9.995206817827334
      ],
      [
        "▁print",
        -9.995375132497944
      ],
      [
        "▁Apple",
        -9.996129828744687
      ],
      [
        "▁ပ္ဍဲကာလဂှ်",
        -9.997672746285144
      ],
      [
        "တတ်",
        -9.998283231596986
      ],
      [
        "▁ပ္ဍဲဘာ",
        -9.998506950331343
      ],
      [
        "▁တွဵုရး",
        -9.998739818615395
      ],
      [
        "နာနာသာ်",
        -9.99880095077668
      ],
      [
        "by",
        -9.999203599849332
      ],
      [
        "မၚ်မွဲ",
        -10.000491807432649
      ],
      [
        "political",
        -10.001189609959853
      ],
      [
        "အာစိုပ်",
        -10.001711385291735
      ],
      [
        "▁below",
        -10.002127991420748
      ],
      [
        "▁reflect",
        -10.002315075717867
      ],
      [
        "▁opportunity",
        -10.002448618378704
      ],
      [
        "▁လဒက်ပ္တန်",
        -10.00277940105231
      ],
      [
        "▁လ္ၚဵု",
        -10.003312045108865
      ],
      [
        "တၠ၊",
        -10.003856390446163
      ],
      [
        "▁decrease",
        -10.003886619979554
      ],
      [
        "▁triangle",
        -10.004026467126776
      ],
      [
        "▁အလွန်",
        -10.005018766363825
      ],
      [
        "▁town",
        -10.0050858381122
      ],
      [
        "▁discuss",
        -10.005402545125463
      ],
      [
        "C",
        -10.006061682031726
      ],
      [
        "▁contains",
        -10.006097010936294
      ],
      [
        "{",
        -10.006583254880404
      ],
      [
        "ပၠန်၊",
        -10.006675865320979
      ],
      [
        "▁farm",
        -10.006767844394576
      ],
      [
        "▁garden",
        -10.007463996395401
      ],
      [
        "▁ထပိုယ်",
        -10.00770200461032
      ],
      [
        "ကျာ်တြဲအိုတ်ရ",
        -10.00837060663494
      ],
      [
        "အဴ",
        -10.00883582639555
      ],
      [
        "n,",
        -10.010194759561388
      ],
      [
        "#",
        -10.010796541861069
      ],
      [
        "▁please",
        -10.010866238339208
      ],
      [
        "▁ပ္ဍဲဍုင်",
        -10.011705385097319
      ],
      [
        "▁၂၅",
        -10.01226646110925
      ],
      [
        "▁ဟိုတ်ပရူပရာဝွံ",
        -10.012415230623755
      ],
      [
        "▁restaurant",
        -10.012495250546433
      ],
      [
        "▁ကောန်ၚာ်",
        -10.013652484710722
      ],
      [
        "▁interface",
        -10.013756559636182
      ],
      [
        "▁node",
        -10.014262040741778
      ],
      [
        "▁handle",
        -10.01431215178598
      ],
      [
        "▁salt",
        -10.014940968785105
      ],
      [
        "▁forward",
        -10.015201322192034
      ],
      [
        "ather",
        -10.016090618560726
      ],
      [
        "ဖျုန်",
        -10.017113370700583
      ],
      [
        "▁bar",
        -10.01727196361936
      ],
      [
        "▁magic",
        -10.017985141123985
      ],
      [
        "ကြုက်",
        -10.018721443672096
      ],
      [
        "ဂတ",
        -10.019769862056096
      ],
      [
        "▁conflict",
        -10.020079671316772
      ],
      [
        "တိုၚ်",
        -10.02010008838524
      ],
      [
        "▁၃၀",
        -10.02080054031089
      ],
      [
        "တိတ်အာ",
        -10.020822904626268
      ],
      [
        "ော",
        -10.020946128338235
      ],
      [
        "▁compare",
        -10.021384536883046
      ],
      [
        "▁cell",
        -10.02144822197983
      ],
      [
        "▁ရဴဝွံမ္ဂး",
        -10.022027313375855
      ],
      [
        "▁Set",
        -10.022546617598874
      ],
      [
        "ဗာ",
        -10.02308194902443
      ],
      [
        "▁ရှု",
        -10.023531074187085
      ],
      [
        "▁$",
        -10.02437676629376
      ],
      [
        "▁song",
        -10.024974149970653
      ],
      [
        "ဗ္တောန်",
        -10.02516182545601
      ],
      [
        "▁နဲ",
        -10.025352443696638
      ],
      [
        "ပေဲါရုဲမာဲ",
        -10.025945112990268
      ],
      [
        "▁wood",
        -10.026216649243466
      ],
      [
        "▁sentiment",
        -10.026279629358886
      ],
      [
        "▁ညးဍုၚ်ကွာန်",
        -10.027336635954747
      ],
      [
        "▁behind",
        -10.027745320204387
      ],
      [
        "▁နွံမံၚ်",
        -10.02797692369673
      ],
      [
        "ပုဟ်",
        -10.028145113264891
      ],
      [
        "▁မဟၟဲကဵု",
        -10.028304889890597
      ],
      [
        "4",
        -10.028490179737648
      ],
      [
        "▁match",
        -10.028537957751803
      ],
      [
        "▁income",
        -10.029285488825595
      ],
      [
        "မု",
        -10.029770181191154
      ],
      [
        "▁effect",
        -10.03009524568359
      ],
      [
        "▁memory",
        -10.030973977928038
      ],
      [
        "ance",
        -10.03111441548843
      ],
      [
        "ဂၠးကဝ်",
        -10.031342003342019
      ],
      [
        "▁warming",
        -10.031647927468493
      ],
      [
        "▁သဘင်",
        -10.031794243777446
      ],
      [
        "\t3",
        -10.032119304923546
      ],
      [
        "▁ဒၞါဲ",
        -10.032291119748427
      ],
      [
        "▁လိက်ပတ်",
        -10.032937029834917
      ],
      [
        "▁Un",
        -10.033285569026846
      ],
      [
        "▁trust",
        -10.03382431560449
      ],
      [
        "တၠအဲ",
        -10.034563796598885
      ],
      [
        "ကၠံ",
        -10.035226856975575
      ],
      [
        "▁tell",
        -10.03588254883708
      ],
      [
        "ဍေဟ်",
        -10.035918713376162
      ],
      [
        "▁remove",
        -10.036544866883569
      ],
      [
        "▁တန်",
        -10.036763243544453
      ],
      [
        "သော်",
        -10.037189436724258
      ],
      [
        "အုပ်ဓုပ်",
        -10.037386436123455
      ],
      [
        "▁ဒှ်ကၠုၚ်",
        -10.037415988703584
      ],
      [
        "ဗုဒ္ဓဘာသာ",
        -10.037910701191873
      ],
      [
        "▁novel",
        -10.038225446818085
      ],
      [
        "▁sweet",
        -10.038357602128393
      ],
      [
        "▁required",
        -10.040193142520092
      ],
      [
        "vast",
        -10.041080758065316
      ],
      [
        "သု",
        -10.041411271226725
      ],
      [
        "အာတုဲ",
        -10.041505657936927
      ],
      [
        "မာန်၊",
        -10.041769512859894
      ],
      [
        "▁respond",
        -10.042756591293067
      ],
      [
        "တဳလမၞုံပိုဉ်",
        -10.042918954791386
      ],
      [
        "▁fair",
        -10.043061200020748
      ],
      [
        "▁contact",
        -10.043381587982264
      ],
      [
        "တဲ့",
        -10.043422668055001
      ],
      [
        "▁promot",
        -10.043673466343066
      ],
      [
        "▁(T",
        -10.043758300305075
      ],
      [
        "ile",
        -10.043882773928644
      ],
      [
        "ဂိ",
        -10.044107313760984
      ],
      [
        "▁revolution",
        -10.04412526414873
      ],
      [
        "measures",
        -10.044346219439223
      ],
      [
        "ထပှ်",
        -10.04476706066685
      ],
      [
        "v",
        -10.04484895979007
      ],
      [
        "rimary",
        -10.044896998649794
      ],
      [
        "▁heav",
        -10.045470212309667
      ],
      [
        "▁ပွ",
        -10.045751539213253
      ],
      [
        "မံက်",
        -10.046785602305917
      ],
      [
        "▁ၜါ",
        -10.046795935492664
      ],
      [
        "K",
        -10.046816670264219
      ],
      [
        "ew",
        -10.046839154277292
      ],
      [
        "သွား၏။",
        -10.046927564923115
      ],
      [
        "▁saving",
        -10.047003265332489
      ],
      [
        "▁serve",
        -10.047483895758223
      ],
      [
        "▁ဟွံဒးအာပတ်ရ",
        -10.047843398416944
      ],
      [
        "▁18",
        -10.048278600823199
      ],
      [
        "ine",
        -10.048630286023505
      ],
      [
        "▁groups",
        -10.048990512644439
      ],
      [
        "▁ဟီုဂး",
        -10.049800431410407
      ],
      [
        "-term",
        -10.049917705809193
      ],
      [
        "▁los",
        -10.051135164216717
      ],
      [
        "▁touch",
        -10.051370943798155
      ],
      [
        "▁(B",
        -10.051593613124787
      ],
      [
        "▁send",
        -10.052346341418765
      ],
      [
        "▁routine",
        -10.052406730530615
      ],
      [
        "▁ဝန်ဇၞော်",
        -10.052574635252018
      ],
      [
        "ကောန်ဍုၚ်အရၚ်တံ",
        -10.053088533731914
      ],
      [
        "စၞ",
        -10.053162494375776
      ],
      [
        "▁ၚုဟ်",
        -10.053335981878398
      ],
      [
        "နိ",
        -10.053533523526557
      ],
      [
        "▁မဂွံ",
        -10.053668731195835
      ],
      [
        "▁မာံ",
        -10.053805744826155
      ],
      [
        "▁burn",
        -10.054570131359025
      ],
      [
        "▁သီုမ",
        -10.0546786772447
      ],
      [
        "▁ညံင်ရဴ",
        -10.05507392286773
      ],
      [
        "ရဳ",
        -10.055648135502272
      ],
      [
        "ဂၠိုင်",
        -10.055823399678712
      ],
      [
        "ပြု",
        -10.05588330728425
      ],
      [
        "လဝ်ကဵု",
        -10.05668351896671
      ],
      [
        "လူ",
        -10.057163180506606
      ],
      [
        "ပြၚ်",
        -10.057334916407935
      ],
      [
        "▁season",
        -10.057641426594767
      ],
      [
        "▁child",
        -10.057932369062286
      ],
      [
        "တိက်",
        -10.059724634717071
      ],
      [
        "ကွေံ",
        -10.059949549788179
      ],
      [
        "▁pay",
        -10.061227843020607
      ],
      [
        "▁cheese",
        -10.06161864888519
      ],
      [
        "▁ဂစေံ",
        -10.061647985506834
      ],
      [
        "▁joy",
        -10.061980470821286
      ],
      [
        "▁ဒက်ပ္တန်လဝ်",
        -10.063395115634775
      ],
      [
        "▁instructions",
        -10.063525672693153
      ],
      [
        "ဇာ",
        -10.063773368027022
      ],
      [
        "သုၚ်စောဲ",
        -10.064273491491914
      ],
      [
        "▁pepper",
        -10.06561651425395
      ],
      [
        "လ္ၚီ",
        -10.065627463392206
      ],
      [
        "▁item",
        -10.065790078159257
      ],
      [
        "▁(E",
        -10.066432494018098
      ],
      [
        "ချေံ",
        -10.06683091001901
      ],
      [
        "ဂုန်",
        -10.067130102832113
      ],
      [
        "▁outcomes",
        -10.06734496081674
      ],
      [
        "▁(-",
        -10.067703580147308
      ],
      [
        "ဝတ္ထု",
        -10.067778084375608
      ],
      [
        "Your",
        -10.067954744618891
      ],
      [
        "▁material",
        -10.068281343476972
      ],
      [
        "▁wait",
        -10.068850541288692
      ],
      [
        "▁မအရေဝ်",
        -10.068982070490414
      ],
      [
        "▁j",
        -10.06938783095691
      ],
      [
        "▁သ္",
        -10.069592790459794
      ],
      [
        "▁indicat",
        -10.069955325169827
      ],
      [
        "▁30",
        -10.070295579381076
      ],
      [
        "ဂြိုဟ်",
        -10.07032712132711
      ],
      [
        "ပုဟ်၊",
        -10.07032737032391
      ],
      [
        "lic",
        -10.070448581596835
      ],
      [
        "▁loop",
        -10.070775990461012
      ],
      [
        "▁emotions",
        -10.070919728802924
      ],
      [
        "▁symbol",
        -10.07094558379837
      ],
      [
        "သၟိင်",
        -10.071727645250064
      ],
      [
        "အစာ",
        -10.071808823607865
      ],
      [
        "ဂှ်ဟေၚ်",
        -10.072313565035724
      ],
      [
        "▁scale",
        -10.0725418718315
      ],
      [
        "ပဒတဴ",
        -10.072814221970491
      ],
      [
        "မိၚ်",
        -10.072840617426797
      ],
      [
        "▁gold",
        -10.073115562536195
      ],
      [
        "▁ဟဂပ်ဝ်",
        -10.073645578009494
      ],
      [
        "နှစ်",
        -10.074520568385335
      ],
      [
        "▁operations",
        -10.074638347092257
      ],
      [
        "▁chatbot",
        -10.074959621182952
      ],
      [
        "▁delicious",
        -10.074999799860294
      ],
      [
        "informed",
        -10.075190883090471
      ],
      [
        "▁begin",
        -10.075251646039305
      ],
      [
        "▁expense",
        -10.07530001834841
      ],
      [
        "▁ဒှ်မၞိဟ်",
        -10.075477802610017
      ],
      [
        "▁X",
        -10.075783209675276
      ],
      [
        "▁ဂၞကျာ်",
        -10.075862780940637
      ],
      [
        "▁ဇုက်",
        -10.075909986596013
      ],
      [
        "▁ကၠုၚ်",
        -10.076107207934665
      ],
      [
        "▁according",
        -10.076166679137632
      ],
      [
        "ကား",
        -10.076211676468928
      ],
      [
        "ပေး",
        -10.076873774902442
      ],
      [
        "သန်",
        -10.077225766198552
      ],
      [
        "▁University",
        -10.078011894473834
      ],
      [
        "▁enter",
        -10.07852481798164
      ],
      [
        "▁creature",
        -10.078586776244784
      ],
      [
        "▁မံက်",
        -10.079215918495091
      ],
      [
        "▁ဖျေံ",
        -10.079389728956038
      ],
      [
        "ပါ်",
        -10.080069953282596
      ],
      [
        "▁ကိုပ်ကၠာ",
        -10.080159335261868
      ],
      [
        "▁river",
        -10.080247008113275
      ],
      [
        "သြောံ",
        -10.080490575415272
      ],
      [
        "taken",
        -10.080676921172923
      ],
      [
        "ဟွံဒး",
        -10.08158429935807
      ],
      [
        "တံကီု",
        -10.08169400536599
      ],
      [
        "ပြန်",
        -10.081987321238614
      ],
      [
        "▁site",
        -10.082147391942538
      ],
      [
        "ensur",
        -10.0822121413829
      ],
      [
        "ကၠေၚ်",
        -10.0823966217812
      ],
      [
        "▁cap",
        -10.082725814904412
      ],
      [
        "ဦး",
        -10.082923903542323
      ],
      [
        "▁invest",
        -10.08306129724583
      ],
      [
        "▁regularly",
        -10.083152951363694
      ],
      [
        "j",
        -10.083185410370344
      ],
      [
        "▁ဒှ်မံၚ်",
        -10.083735299224914
      ],
      [
        "သီုဖအိုတ်",
        -10.083928987216398
      ],
      [
        "▁states",
        -10.084082098049587
      ],
      [
        "ဒေဝတဴ",
        -10.08418412312695
      ],
      [
        "–",
        -10.084405039641897
      ],
      [
        "te",
        -10.084673167609054
      ],
      [
        "▁မဟာ",
        -10.085132279478408
      ],
      [
        "fully",
        -10.085391487541216
      ],
      [
        "▁ဂၠံၚ်",
        -10.08549765216384
      ],
      [
        "▁lay",
        -10.085864318693005
      ],
      [
        "ပလီု",
        -10.08632136619595
      ],
      [
        "သုတေသန",
        -10.086421069167566
      ],
      [
        "ပွ",
        -10.087178573470938
      ],
      [
        "side",
        -10.087350174476061
      ],
      [
        "သ္ၚာ",
        -10.087468340963518
      ],
      [
        "ian",
        -10.087522825912204
      ],
      [
        "တုဲရ။",
        -10.087556819543973
      ],
      [
        "▁fossil",
        -10.088099451239707
      ],
      [
        "ကျာ်ဇၞော်ဘဒ္ဒန္တ",
        -10.08831511167546
      ],
      [
        "မၞး",
        -10.088316354622961
      ],
      [
        "▁ဂွံဒှ်",
        -10.088351339058917
      ],
      [
        "ရမျာၚ်",
        -10.088641962816403
      ],
      [
        "▁ဟီုဂရိုဟ်",
        -10.088956699552323
      ],
      [
        "*",
        -10.089071345212524
      ],
      [
        "V",
        -10.089136533441788
      ],
      [
        "1:",
        -10.089350617144238
      ],
      [
        "ဂၞကျာ်",
        -10.08943249329163
      ],
      [
        "တုဲရ၊",
        -10.09071833241098
      ],
      [
        "▁ice",
        -10.091253158153094
      ],
      [
        "▁soft",
        -10.09133345801832
      ],
      [
        "▁train",
        -10.091582620811714
      ],
      [
        "▁(၁၉",
        -10.09203962401407
      ],
      [
        "ပၠန်ဂှ်",
        -10.092506843611517
      ],
      [
        "▁consumption",
        -10.092591266915763
      ],
      [
        "အိုတ်ရော?",
        -10.093047894389198
      ],
      [
        "▁တီ",
        -10.093201614568343
      ],
      [
        "ထောအ်",
        -10.093366359867234
      ],
      [
        "ကွတ်",
        -10.093802958841735
      ],
      [
        "▁flavor",
        -10.093952557598069
      ],
      [
        "▁ဂိုဏ်ရာမညနိကာယ",
        -10.094080573637727
      ],
      [
        "ထား",
        -10.094980730527293
      ],
      [
        "▁rain",
        -10.09560376810173
      ],
      [
        "▁11",
        -10.095729255992708
      ],
      [
        "▁analyz",
        -10.09574225206687
      ],
      [
        "▁engagement",
        -10.09630388185917
      ],
      [
        "▁ဂကောံရပ်လွဟ်",
        -10.096517404844839
      ],
      [
        "▁blog",
        -10.09683398517015
      ],
      [
        "▁ဓရ်",
        -10.096844247566708
      ],
      [
        "▁organizations",
        -10.09736384507844
      ],
      [
        "▁sequence",
        -10.09774740653127
      ],
      [
        "ဍေံတံ",
        -10.098687648348502
      ],
      [
        "ummarize",
        -10.098710907790744
      ],
      [
        "cities",
        -10.098995387288323
      ],
      [
        "▁100",
        -10.099464447778175
      ],
      [
        "▁pan",
        -10.10040492071824
      ],
      [
        "▁conduct",
        -10.100568577844406
      ],
      [
        "ပွိုၚ်ဍုၚ်",
        -10.100651618532044
      ],
      [
        "ပၚ်",
        -10.101054306215737
      ],
      [
        "က္ဍိုပ်သ္ကိုပ်",
        -10.101416721445988
      ],
      [
        "တာလျိုၚ်",
        -10.101770730124052
      ],
      [
        "▁books",
        -10.10179291294125
      ],
      [
        "▁ever",
        -10.10179494137865
      ],
      [
        "limited",
        -10.102193061587263
      ],
      [
        "▁remote",
        -10.1022483120313
      ],
      [
        "5)",
        -10.10355229882735
      ],
      [
        "▁cold",
        -10.104854809269828
      ],
      [
        "▁တက္ကသိုလ်",
        -10.10586444715114
      ],
      [
        "ity.",
        -10.106251373119218
      ],
      [
        "▁ပရေင်ဍုင်ကွာန်",
        -10.106665473555218
      ],
      [
        "စရၚ်",
        -10.106688864736185
      ],
      [
        "သၠုၚ်",
        -10.10704188276313
      ],
      [
        "▁တာလျိုင်",
        -10.107434931536918
      ],
      [
        "▁recycl",
        -10.10756751474162
      ],
      [
        "scientific",
        -10.108110124455365
      ],
      [
        "ရော။",
        -10.10869344311869
      ],
      [
        "ဖေက်",
        -10.108903928897313
      ],
      [
        "▁running",
        -10.10921493547975
      ],
      [
        "ပိုတ်",
        -10.11086313879689
      ],
      [
        "▁quick",
        -10.110901199249245
      ],
      [
        "သာ်ဝွံ",
        -10.111300260154916
      ],
      [
        "0",
        -10.111962085456556
      ],
      [
        "▁ပံက်",
        -10.112158648490123
      ],
      [
        "နဳ",
        -10.112410473089755
      ],
      [
        "မာန်။",
        -10.112746451623725
      ],
      [
        "▁chemical",
        -10.113283158406865
      ],
      [
        "▁theme",
        -10.113330600739967
      ],
      [
        "ရ်",
        -10.113519201508366
      ],
      [
        "▁peace",
        -10.113926461560474
      ],
      [
        "▁အဝဵု",
        -10.11393310085968
      ],
      [
        "ရုဲစှ်",
        -10.113936352319556
      ],
      [
        "▁စိတ်",
        -10.114005999256538
      ],
      [
        "ိ",
        -10.114446874487852
      ],
      [
        "တော့",
        -10.11465834486502
      ],
      [
        "went",
        -10.114682477162665
      ],
      [
        "ဒှ်အာ",
        -10.11559124324863
      ],
      [
        "series",
        -10.115742902544115
      ],
      [
        "de",
        -10.115772933597544
      ],
      [
        "ever",
        -10.115807636402256
      ],
      [
        "vt.vi.",
        -10.115842738092088
      ],
      [
        "▁soil",
        -10.115989209230275
      ],
      [
        "ut",
        -10.116558294853629
      ],
      [
        "▁ဌာန်",
        -10.117012031221694
      ],
      [
        "ဟွံတီ",
        -10.117091198522346
      ],
      [
        "...",
        -10.117892031608033
      ],
      [
        "▁ကာလဂှ်",
        -10.117908636499996
      ],
      [
        "▁smooth",
        -10.118623304489004
      ],
      [
        "▁Compar",
        -10.119480512730318
      ],
      [
        "ဥပဒေ",
        -10.119715076945857
      ],
      [
        "▁policy",
        -10.11998059625801
      ],
      [
        "▁အရေဝ်ဘာသာ",
        -10.120582017508696
      ],
      [
        "5",
        -10.121295337146268
      ],
      [
        "▁ဘဒ္ဒန္တ",
        -10.121614484241828
      ],
      [
        "▁En",
        -10.122070328191935
      ],
      [
        "red",
        -10.122592236802053
      ],
      [
        "ဟီုမ္ဂးဂှ်",
        -10.122683189961283
      ],
      [
        "ity,",
        -10.122741051275792
      ],
      [
        "▁Let",
        -10.123002694440009
      ],
      [
        "adj.",
        -10.123774197298108
      ],
      [
        "8",
        -10.12453577654324
      ],
      [
        "▁offering",
        -10.125987205380847
      ],
      [
        "▁height",
        -10.12646233241571
      ],
      [
        "ဝါဒ",
        -10.127131982746734
      ],
      [
        "▁diseases",
        -10.127351162041666
      ],
      [
        "ၚုဟ်မး",
        -10.127446107089618
      ],
      [
        "-to-",
        -10.127645915707987
      ],
      [
        "',",
        -10.128304119255795
      ],
      [
        "▁အတိုင်စရင်",
        -10.128336445772806
      ],
      [
        "built",
        -10.128767269747964
      ],
      [
        "ially",
        -10.128912994952001
      ],
      [
        "▁respect",
        -10.12893118019235
      ],
      [
        "▁က္ဍိုပ်",
        -10.12921271873612
      ],
      [
        "ကွာန်ဂှ်",
        -10.129726113148378
      ],
      [
        "▁ကိုဋ်",
        -10.129753957786935
      ],
      [
        "▁block",
        -10.129877194038244
      ],
      [
        "▁fish",
        -10.13006055954121
      ],
      [
        "ဂှ်ရ၊",
        -10.130416342677965
      ],
      [
        "သဳလ",
        -10.130819020504115
      ],
      [
        "အိုတ်သီု",
        -10.131160635070653
      ],
      [
        "▁evidence",
        -10.131678073244231
      ],
      [
        "ဴ",
        -10.131898782891426
      ],
      [
        "▁တစ်",
        -10.132265864801631
      ],
      [
        "ier",
        -10.132415008426445
      ],
      [
        "▁largest",
        -10.132875398884094
      ],
      [
        "▁ဒဵုကဵု",
        -10.13327240870824
      ],
      [
        "မနွံကဵု",
        -10.133463832770083
      ],
      [
        "ဇကုတုဲ",
        -10.134080068108553
      ],
      [
        "သွဟ်",
        -10.134123522583561
      ],
      [
        "အိုတ်ညိ၊",
        -10.13413210896326
      ],
      [
        "သုၚ်",
        -10.134792771447334
      ],
      [
        "ဖြစ်၏။",
        -10.1353135905509
      ],
      [
        "▁ပွိုင်",
        -10.135771115917688
      ],
      [
        "ဒွက်",
        -10.136505665112654
      ],
      [
        "ဒြပ်",
        -10.136852555278498
      ],
      [
        "မင်း",
        -10.137106261457191
      ],
      [
        "Based",
        -10.137554470838312
      ],
      [
        "တုဲဂှ်",
        -10.13783480532878
      ],
      [
        "▁wear",
        -10.138559864153457
      ],
      [
        "▁guide",
        -10.13859478813159
      ],
      [
        "▁film",
        -10.138856675269125
      ],
      [
        "▁characteristics",
        -10.139694801449686
      ],
      [
        "▁ဒေဝတဴ",
        -10.139728482679867
      ],
      [
        "တအ်တုဲ",
        -10.14030081052345
      ],
      [
        "6",
        -10.141109841925491
      ],
      [
        "ဟွံမွဲကဵု",
        -10.142927631465714
      ],
      [
        "finding",
        -10.143226732598233
      ],
      [
        "▁ဓဝ်",
        -10.143646726733582
      ],
      [
        "▁carry",
        -10.143830865916255
      ],
      [
        "သ္ဍိုက်မၠိုက်",
        -10.143899709916834
      ],
      [
        "▁branch",
        -10.14449749847811
      ],
      [
        "ပလေဝ်",
        -10.14451562011099
      ],
      [
        "▁transform",
        -10.144591686798451
      ],
      [
        "မၞုံကဵုစၟတ်သမ္တီ",
        -10.14484717735262
      ],
      [
        "ကတောဝ်",
        -10.144877479785222
      ],
      [
        "လို",
        -10.144989895887688
      ],
      [
        "ပေါဲရုဲမာဲ",
        -10.145348630023946
      ],
      [
        "^2",
        -10.146112718851871
      ],
      [
        "▁ပရိုၚ်",
        -10.148434999442493
      ],
      [
        "ဂမၠိုၚ်ရ။",
        -10.148435021345465
      ],
      [
        "▁Construct",
        -10.14868427391442
      ],
      [
        "▁dish",
        -10.149043376506633
      ],
      [
        "▁Research",
        -10.1493681690582
      ],
      [
        "▁လၟိဟ်မၞိဟ်",
        -10.150021066764959
      ],
      [
        "▁fear",
        -10.150190391308179
      ],
      [
        "▁def",
        -10.152346931721226
      ],
      [
        "▁examples",
        -10.152483914516385
      ],
      [
        "like",
        -10.152617990821792
      ],
      [
        "▁၂၀၂၀",
        -10.152857735631244
      ],
      [
        "▁prim",
        -10.153011125728593
      ],
      [
        "ဝေ",
        -10.153466685593237
      ],
      [
        "ညးဂှ်",
        -10.153809093734854
      ],
      [
        "တွဵု",
        -10.154899693552062
      ],
      [
        "L",
        -10.155633285718169
      ],
      [
        "im",
        -10.156003551571196
      ],
      [
        "dustries",
        -10.156005325671625
      ],
      [
        "ထားသော",
        -10.156093698086185
      ],
      [
        "▁buy",
        -10.156940640819599
      ],
      [
        "ဥ",
        -10.15764737479047
      ],
      [
        "▁ဇ",
        -10.157958453901585
      ],
      [
        "▁advancement",
        -10.157985789572365
      ],
      [
        "▁option",
        -10.158188173163754
      ],
      [
        "မလုပ်ဒဂိုန်",
        -10.158903887538894
      ],
      [
        "▁essay",
        -10.158995354335996
      ],
      [
        "Great",
        -10.159122296149345
      ],
      [
        "ethical",
        -10.159446860319118
      ],
      [
        "located",
        -10.16042879689478
      ],
      [
        "▁polic",
        -10.160575430092864
      ],
      [
        "▁third",
        -10.16057712739055
      ],
      [
        "▁ဖျုန်",
        -10.160856915879979
      ],
      [
        "▁လၟေၚ်",
        -10.16092235135339
      ],
      [
        "▁kne",
        -10.160991894423224
      ],
      [
        "▁My",
        -10.162534387451174
      ],
      [
        "▁emotional",
        -10.162634803175033
      ],
      [
        "▁age",
        -10.162851355468344
      ],
      [
        "▁ပိ",
        -10.16430927910061
      ],
      [
        "▁divers",
        -10.1643642224622
      ],
      [
        "▁Jack",
        -10.164545309989794
      ],
      [
        "ညးဂမၠိုၚ်",
        -10.165539906384055
      ],
      [
        "ဏံတုဲ",
        -10.165701723949855
      ],
      [
        "ဍိက်",
        -10.166373126428004
      ],
      [
        "▁manag",
        -10.166819437866788
      ],
      [
        "pproximately",
        -10.16760814636108
      ],
      [
        "▁ညးတေအ်",
        -10.167827576526673
      ],
      [
        "▁watch",
        -10.168572876790723
      ],
      [
        "ဂစေံ",
        -10.168936500103452
      ],
      [
        "▁rapid",
        -10.169293034511046
      ],
      [
        "▁trip",
        -10.169746617347766
      ],
      [
        "▁ဒွက်",
        -10.169763707556978
      ],
      [
        "▁16",
        -10.169962187883556
      ],
      [
        "▁bag",
        -10.170177312213726
      ],
      [
        "ဟု",
        -10.170366641892336
      ],
      [
        "ၜတ်",
        -10.1707517977081
      ],
      [
        "trategies",
        -10.172002045715052
      ],
      [
        "▁stream",
        -10.17209346785686
      ],
      [
        "▁tone",
        -10.172343061749778
      ],
      [
        "▁wonder",
        -10.17259525551993
      ],
      [
        "ဓမ္မ",
        -10.173576996902701
      ],
      [
        "တာန်",
        -10.173740311164718
      ],
      [
        "▁ပ္ဍဲကွာန်",
        -10.173832707217594
      ],
      [
        "စှ်ေအာ",
        -10.173917375922834
      ],
      [
        "▁Person",
        -10.174227459488328
      ],
      [
        "▁ကုညး",
        -10.17430774042709
      ],
      [
        "▁classification",
        -10.175264134756958
      ],
      [
        "▁ready",
        -10.175314317030335
      ],
      [
        "ဂှ်ဝွံ",
        -10.176283646421798
      ],
      [
        "▁ပြကိုဟ်",
        -10.17631102745424
      ],
      [
        "▁butter",
        -10.176428358869776
      ],
      [
        "အာရ။",
        -10.176518888371323
      ],
      [
        "▁conversation",
        -10.176543482837062
      ],
      [
        "ပါလုပ်",
        -10.176595061210485
      ],
      [
        "တၟအ်",
        -10.176702482419444
      ],
      [
        "ရပ်စပ်",
        -10.176976239780547
      ],
      [
        "▁consistent",
        -10.177066750077001
      ],
      [
        "ရာဇာ",
        -10.177105852312277
      ],
      [
        "low",
        -10.177504745478258
      ],
      [
        "အမာတ်",
        -10.177505182903925
      ],
      [
        "rs",
        -10.178627119887942
      ],
      [
        "▁vehicles",
        -10.178657008365086
      ],
      [
        "လွဳပရာ",
        -10.179068275544608
      ],
      [
        "▁previous",
        -10.179658717910907
      ],
      [
        "▁ခမဳဂမၠိုၚ်ဂှ်",
        -10.179765443866431
      ],
      [
        "▁ball",
        -10.18037184294495
      ],
      [
        "ကၠ",
        -10.181722153693553
      ],
      [
        "U",
        -10.181744146818396
      ],
      [
        "▁အလဵုဇကု",
        -10.181867427225988
      ],
      [
        "▁details",
        -10.18187351378629
      ],
      [
        "son",
        -10.18215331881622
      ],
      [
        "သိုက်",
        -10.182770391417995
      ],
      [
        "ဗြဲ",
        -10.183720345780532
      ],
      [
        "▁thinking",
        -10.183870387437189
      ],
      [
        "▁habit",
        -10.185052853115243
      ],
      [
        "▁damage",
        -10.185331643063869
      ],
      [
        "▁attract",
        -10.185696412300974
      ],
      [
        "▁ဖေက်",
        -10.185777384710523
      ],
      [
        "ဒၟံၚ်၊",
        -10.18584067769756
      ],
      [
        "အခေါၚ်",
        -10.185913660938468
      ],
      [
        "▁movement",
        -10.186049396519438
      ],
      [
        "သာ်ဂှ်",
        -10.186651233632045
      ],
      [
        "▁well-being",
        -10.187147339075137
      ],
      [
        "way",
        -10.187300728557943
      ],
      [
        "များကို",
        -10.187341824474837
      ],
      [
        "ဂၠုၚ်",
        -10.187448957505255
      ],
      [
        "မုဟ်",
        -10.187872005111783
      ],
      [
        "ပါ။",
        -10.188007605654214
      ],
      [
        "လဴ",
        -10.188216745797572
      ],
      [
        "▁ပိုဲတံ",
        -10.188562523058252
      ],
      [
        "▁Develop",
        -10.188596977720339
      ],
      [
        "▁noun",
        -10.189531904185824
      ],
      [
        "ပိုန်",
        -10.190338024477686
      ],
      [
        "လီုလာ်",
        -10.190501034091639
      ],
      [
        "သ္ဂးရ။",
        -10.190617932881391
      ],
      [
        "မ္ၚဵု",
        -10.190766485228849
      ],
      [
        "လိက်ပတ်",
        -10.190817957219789
      ],
      [
        "ell",
        -10.191081634365595
      ],
      [
        "ဂှ်တှ်ေ",
        -10.193122548682542
      ],
      [
        "ဒၟံၚ်ရ။",
        -10.193199488193665
      ],
      [
        "ကမ်",
        -10.193275647663363
      ],
      [
        "▁fel",
        -10.19363571482571
      ],
      [
        "တဴရ။",
        -10.194234565487541
      ],
      [
        "လီ",
        -10.194791265841793
      ],
      [
        "သ္ဂးရ)",
        -10.195399310927591
      ],
      [
        "▁သၟာကမၠောန်",
        -10.195950057044447
      ],
      [
        "▁(ပါဠိ—",
        -10.196194749594913
      ],
      [
        "UNFC",
        -10.196219663695961
      ],
      [
        "▁server",
        -10.19693437096756
      ],
      [
        "▁cut",
        -10.197510188610105
      ],
      [
        "▁credit",
        -10.197969146889125
      ],
      [
        "ပတ်",
        -10.199835939844384
      ],
      [
        "စု",
        -10.2004844531505
      ],
      [
        "▁talk",
        -10.20058386549784
      ],
      [
        "▁taste",
        -10.200656837352614
      ],
      [
        "▁ဒှ်အရာ",
        -10.200936301272218
      ],
      [
        "2:",
        -10.201428781348293
      ],
      [
        "▁cook",
        -10.201437831292838
      ],
      [
        "ကုသဵု",
        -10.202089875917206
      ],
      [
        "▁မိမိ",
        -10.202506757477007
      ],
      [
        "မန်၊",
        -10.202590255532535
      ],
      [
        "▁author",
        -10.202621067738185
      ],
      [
        "သၞ",
        -10.202798441281537
      ],
      [
        "▁saw",
        -10.20280097378976
      ],
      [
        "လောက",
        -10.202886800489077
      ],
      [
        "M",
        -10.203245545006812
      ],
      [
        "ဖျာ",
        -10.20387166560202
      ],
      [
        "▁networks",
        -10.203997629754411
      ],
      [
        "cultural",
        -10.20418848000758
      ],
      [
        "▁တေံ",
        -10.204583179116806
      ],
      [
        "▁bak",
        -10.205210857277265
      ],
      [
        "ncient",
        -10.205334014713836
      ],
      [
        "usage",
        -10.205465530102732
      ],
      [
        "ဝွံဂှ်",
        -10.20548426218782
      ],
      [
        "▁eggs",
        -10.20660918264756
      ],
      [
        "most",
        -10.206708357709878
      ],
      [
        "ငယ်",
        -10.206873281647436
      ],
      [
        "NLD",
        -10.207046731474808
      ],
      [
        "▁background",
        -10.20707378379409
      ],
      [
        "▁party",
        -10.207301858688325
      ],
      [
        "ဒိုဟ်",
        -10.20738309948152
      ],
      [
        "က္",
        -10.207508443075202
      ],
      [
        "လဒေါဝ်",
        -10.207702756243375
      ],
      [
        "Artificial",
        -10.20839371323041
      ],
      [
        "▁century",
        -10.208423411565002
      ],
      [
        "▁calm",
        -10.208468064808761
      ],
      [
        "ဂေတ်",
        -10.208494516849385
      ],
      [
        "ကောံ",
        -10.208916915718817
      ],
      [
        "▁ပၞောဝ်ကဵု",
        -10.209073812779721
      ],
      [
        "ဟီုဂး",
        -10.209366409230983
      ],
      [
        "▁condition",
        -10.209562268585785
      ],
      [
        "▁skin",
        -10.209903821704561
      ],
      [
        "▁happy",
        -10.20992501179695
      ],
      [
        "s?",
        -10.210505764654606
      ],
      [
        "▁fit",
        -10.211570005407355
      ],
      [
        "▁summer",
        -10.211636962445512
      ],
      [
        "▁Dur",
        -10.212205493241113
      ],
      [
        "စပ်",
        -10.212244694097423
      ],
      [
        "▁reward",
        -10.212520612531652
      ],
      [
        "▁dry",
        -10.212667797250997
      ],
      [
        "အခါ",
        -10.21387039214212
      ],
      [
        "လိက်ပတ်မန်",
        -10.2141771618782
      ],
      [
        "rew",
        -10.214330689760677
      ],
      [
        "▁ခမဳဗြဴ",
        -10.21539516537254
      ],
      [
        "▁ult",
        -10.215584231044872
      ],
      [
        ",\"",
        -10.21580578961532
      ],
      [
        "အမေရိကာန်",
        -10.216372678214974
      ],
      [
        "ဟေၚ်ရ။",
        -10.216917622436851
      ],
      [
        "▁expand",
        -10.21745890510424
      ],
      [
        "▁ဦး",
        -10.217600345581268
      ],
      [
        "တၞး",
        -10.21790362040758
      ],
      [
        "▁ပန်",
        -10.217914168621522
      ],
      [
        "tips",
        -10.218414748355926
      ],
      [
        "သၟာ",
        -10.218475589201308
      ],
      [
        "ဒးဒုၚ်",
        -10.219925518606136
      ],
      [
        "▁figure",
        -10.219952697195058
      ],
      [
        "▁ဂးတုဲ",
        -10.220593124620674
      ],
      [
        "▁Edit",
        -10.220610262575502
      ],
      [
        "▁National",
        -10.220960678967558
      ],
      [
        "▁fat",
        -10.220963556087092
      ],
      [
        "ချက်",
        -10.221647395295054
      ],
      [
        "တိုင်း",
        -10.223466186227126
      ],
      [
        "၆။",
        -10.224524268049523
      ],
      [
        "ဍာံ",
        -10.224772308000048
      ],
      [
        "တၞံဆု",
        -10.224812064292937
      ],
      [
        "id",
        -10.225288292225212
      ],
      [
        "That",
        -10.225945963458322
      ],
      [
        "▁pandemic",
        -10.22698583161685
      ],
      [
        "▁girl",
        -10.227014449021471
      ],
      [
        "ဂူ",
        -10.227016126920475
      ],
      [
        "▁စၟတ်တ္ၚဲ",
        -10.227191191681388
      ],
      [
        "ဒုန်",
        -10.227222927705263
      ],
      [
        "▁ဂစာန်",
        -10.227724081400558
      ],
      [
        "ံ၊",
        -10.228199935387575
      ],
      [
        "ပရေင်",
        -10.228460357195706
      ],
      [
        "ူ",
        -10.228486670875963
      ],
      [
        "▁sort",
        -10.228806645164767
      ],
      [
        "▁ကွဳစက်",
        -10.22940099148515
      ],
      [
        "▁remember",
        -10.230383364247226
      ],
      [
        "▁ညးဍုင်ကွာန်",
        -10.230758891337382
      ],
      [
        "▁assist",
        -10.230794149353708
      ],
      [
        "ရိ",
        -10.230851959640454
      ],
      [
        "ကာယ",
        -10.230871509664512
      ],
      [
        "▁computers",
        -10.23111712178543
      ],
      [
        "▁delivery",
        -10.231200430853967
      ],
      [
        "▁trade",
        -10.231382044666656
      ],
      [
        "ဒုတိယ",
        -10.231493946747456
      ],
      [
        "▁score",
        -10.231529865242798
      ],
      [
        "တံရ။",
        -10.231787033209212
      ],
      [
        "▁format",
        -10.231909901950083
      ],
      [
        "ne",
        -10.23211355700487
      ],
      [
        "ပၟိက်",
        -10.232474018585897
      ],
      [
        "ဗဝ်",
        -10.233108376244616
      ],
      [
        "growing",
        -10.233333381441202
      ],
      [
        "သမ္မတ",
        -10.233536748501336
      ],
      [
        "▁direction",
        -10.233669012533337
      ],
      [
        "▁direct",
        -10.234203739206468
      ],
      [
        "ince",
        -10.234782938862411
      ],
      [
        "espec",
        -10.235105402385042
      ],
      [
        "▁interactive",
        -10.235529663049025
      ],
      [
        "ချဳဒရာၚ်",
        -10.23641651476655
      ],
      [
        "▁လေပ်",
        -10.236489936406363
      ],
      [
        "ure",
        -10.236766493584053
      ],
      [
        "ဣ",
        -10.237060144376796
      ],
      [
        "အာတ်",
        -10.237173507252098
      ],
      [
        "အဝဲ",
        -10.2375075538747
      ],
      [
        "nalyze",
        -10.237623824337685
      ],
      [
        "▁(ကြိ",
        -10.23770127570457
      ],
      [
        "▁လုကဴ",
        -10.237822188366856
      ],
      [
        "▁သုတေသန",
        -10.238728229283883
      ],
      [
        "ခံ",
        -10.238755285828141
      ],
      [
        "ပံၚ်",
        -10.23906451424859
      ],
      [
        "▁employee",
        -10.239406219592711
      ],
      [
        "rely",
        -10.239810269176646
      ],
      [
        "▁bond",
        -10.240102044980429
      ],
      [
        "go",
        -10.240785980062824
      ],
      [
        "▁ချပ်",
        -10.242479914513426
      ],
      [
        "ဝန်",
        -10.242857141021247
      ],
      [
        "▁reaction",
        -10.243458545562767
      ],
      [
        "▁smartphone",
        -10.244547050921751
      ],
      [
        "▁cells",
        -10.244727408847176
      ],
      [
        "ta",
        -10.244800108054662
      ],
      [
        "ဗွဲမ",
        -10.245264551119078
      ],
      [
        "▁smart",
        -10.245683524845788
      ],
      [
        "ဂမၠိုၚ်တုဲ",
        -10.246028713800492
      ],
      [
        "▁command",
        -10.24606782670033
      ],
      [
        "▁death",
        -10.246071800863072
      ],
      [
        "▁Thank",
        -10.246095001904727
      ],
      [
        "▁operat",
        -10.246222231282754
      ],
      [
        "▁career",
        -10.246330725057701
      ],
      [
        "▁cream",
        -10.246407724742731
      ],
      [
        "စိတ်",
        -10.246510863562822
      ],
      [
        "▁lack",
        -10.247181329524937
      ],
      [
        "တို့၏",
        -10.247232990756974
      ],
      [
        "playing",
        -10.247337145088565
      ],
      [
        "ဟွံသေၚ်၊",
        -10.247835153858162
      ],
      [
        "ရာမည",
        -10.24829940171913
      ],
      [
        "ကီုရ၊၊",
        -10.248301903401053
      ],
      [
        "▁အမာတ်",
        -10.248501089329686
      ],
      [
        "▁bowl",
        -10.249393140559196
      ],
      [
        "▁rock",
        -10.250281386984241
      ],
      [
        "ပသဲ",
        -10.250656148038503
      ],
      [
        "▁mountain",
        -10.25101300696777
      ],
      [
        "ring",
        -10.2512768894834
      ],
      [
        "▁players",
        -10.251504316446821
      ],
      [
        "ကၠောန်ကမၠောန်",
        -10.251722324665245
      ],
      [
        "▁မာန်",
        -10.25220122525031
      ],
      [
        "▁မုက်လိက်",
        -10.252583889928392
      ],
      [
        "မြ",
        -10.252862891634955
      ],
      [
        "တယ်",
        -10.252955117657685
      ],
      [
        "ဇၞး",
        -10.252967031040512
      ],
      [
        "ကလော်",
        -10.253010161683651
      ],
      [
        "သုံး",
        -10.253201354677593
      ],
      [
        "မေ",
        -10.253681900830923
      ],
      [
        "feet",
        -10.254286034674688
      ],
      [
        "ဝေန်",
        -10.254301128941732
      ],
      [
        "▁box",
        -10.254484979362616
      ],
      [
        "မပတၠပိုဉ်တြဴပြကာ",
        -10.255535185808661
      ],
      [
        "ကြပ်",
        -10.257191040404695
      ],
      [
        "7",
        -10.259078980287997
      ],
      [
        "▁မၞိဟ်ဗြဴ",
        -10.259445258116898
      ],
      [
        "▁divid",
        -10.260155861103865
      ],
      [
        "▁17",
        -10.2601727471809
      ],
      [
        "▁challeng",
        -10.260395026929764
      ],
      [
        "နေ၏။",
        -10.260500802530101
      ],
      [
        "ဿ",
        -10.260570889409681
      ],
      [
        "▁စဵုကဵုစိုပ်",
        -10.260641425596326
      ],
      [
        "ything",
        -10.260903812746292
      ],
      [
        "▁compar",
        -10.261603166398976
      ],
      [
        "ဍုၚ်မန်",
        -10.261820976089762
      ],
      [
        "▁presentation",
        -10.262271165303826
      ],
      [
        "▁စုတ်",
        -10.262502068074177
      ],
      [
        "▁discover",
        -10.26262229134631
      ],
      [
        "▁ပ္ဍဲတ္ၚဲ",
        -10.262963246642762
      ],
      [
        "▁ရး",
        -10.263195763558445
      ],
      [
        "▁write",
        -10.2635501896684
      ],
      [
        "▁Come",
        -10.263692237405415
      ],
      [
        "▁တ္ၚဲဏံ",
        -10.263866608233553
      ],
      [
        "▁(p",
        -10.264494293563398
      ],
      [
        "ဗၠးၜး",
        -10.264739362003464
      ],
      [
        "ကောင်း",
        -10.264795199302629
      ],
      [
        "▁မိမ",
        -10.26561763294335
      ],
      [
        "သၠ",
        -10.265728355996004
      ],
      [
        "▁protein",
        -10.266336105416606
      ],
      [
        "▁catch",
        -10.266416001116436
      ],
      [
        "ဟွံဒှ်",
        -10.266440342929751
      ],
      [
        "▁Regular",
        -10.266453412497434
      ],
      [
        "▁capture",
        -10.266506270841198
      ],
      [
        "▁တိတ်",
        -10.26652421369666
      ],
      [
        "လံ",
        -10.266593223642241
      ],
      [
        "▁York",
        -10.266863999667422
      ],
      [
        "▁ဍေံတအ်",
        -10.266900104749759
      ],
      [
        "▁ဆု",
        -10.267054211754449
      ],
      [
        "▁ထ္ၜး",
        -10.267552473426743
      ],
      [
        "▁consist",
        -10.267807102045072
      ],
      [
        "▁ဂုဏ်",
        -10.268488153026055
      ],
      [
        "ကၠတ်",
        -10.269776299565564
      ],
      [
        "▁pet",
        -10.269793572918827
      ],
      [
        "ဆန်",
        -10.269821244917614
      ],
      [
        "▁ဂြိုဟ်",
        -10.270307434967819
      ],
      [
        "လဲ",
        -10.270333682960043
      ],
      [
        "advantages",
        -10.270416113864906
      ],
      [
        "▁region",
        -10.270861303665027
      ],
      [
        "သၞောဝ်ဥပဒေ",
        -10.270940026461576
      ],
      [
        "▁တဳလပိုဉ်",
        -10.27117326052143
      ],
      [
        "ဂါ",
        -10.271336288109556
      ],
      [
        "rought",
        -10.271567553778695
      ],
      [
        "▁electricity",
        -10.27186004430007
      ],
      [
        "သမ္တီ",
        -10.27227123050065
      ],
      [
        "▁infrastructure",
        -10.273420984443003
      ],
      [
        "▁အခေါၚ်အရာ",
        -10.273545832748495
      ],
      [
        "ware",
        -10.273768349302012
      ],
      [
        "▁attack",
        -10.273889972131665
      ],
      [
        "r.",
        -10.27412220890549
      ],
      [
        "▁kingdom",
        -10.275038931911592
      ],
      [
        "▁habitat",
        -10.275132685071181
      ],
      [
        "ပ္ဍဲကဵု",
        -10.275219169474216
      ],
      [
        "▁advantage",
        -10.275765460560912
      ],
      [
        "▁ရမ္သာင်",
        -10.276117214936392
      ],
      [
        "▁leader",
        -10.276286577011806
      ],
      [
        "▁regard",
        -10.276718302262072
      ],
      [
        "ကြကုန်၏။",
        -10.277058508130466
      ],
      [
        "▁မဂပ်ဝ်",
        -10.277183175900783
      ],
      [
        "▁standard",
        -10.27727408870713
      ],
      [
        "testing",
        -10.277725638226293
      ],
      [
        "work",
        -10.277840695568464
      ],
      [
        "▁စိုပ်အာ",
        -10.27822800479701
      ],
      [
        "▁continuous",
        -10.278292063989703
      ],
      [
        "Please",
        -10.278656915725026
      ],
      [
        "▁အရာပ်",
        -10.278731024843065
      ],
      [
        "▁French",
        -10.27903954281214
      ],
      [
        "ဂမၠိုင်ရ။",
        -10.279752599668898
      ],
      [
        "ors",
        -10.279795208204526
      ],
      [
        "ဂၠံၚ်တရဴ",
        -10.279817118434494
      ],
      [
        "▁၂၀၂၂",
        -10.280053937734817
      ],
      [
        "တံတုဲ",
        -10.281641155034151
      ],
      [
        "▁ဟွံတီ",
        -10.281710991228724
      ],
      [
        "▁ဒံက်တာ",
        -10.282166821040061
      ],
      [
        "ဆို၏။",
        -10.282792671463863
      ],
      [
        "▁24",
        -10.284578088914813
      ],
      [
        "သိက္ခာပိုဒ်",
        -10.284580501264166
      ],
      [
        "▁determined",
        -10.285093884644064
      ],
      [
        "▁dog",
        -10.285218671808558
      ],
      [
        "ily",
        -10.285828346551657
      ],
      [
        "▁ပ္ဍဲဍုၚ်",
        -10.285891813697946
      ],
      [
        "▁(F",
        -10.285954827664183
      ],
      [
        "▁logo",
        -10.285990874028226
      ],
      [
        "s):",
        -10.286365618121678
      ],
      [
        "▁launch",
        -10.28637132453702
      ],
      [
        "▁presence",
        -10.286585750957755
      ],
      [
        "▁chance",
        -10.286648312259388
      ],
      [
        "ကွးဘာ",
        -10.286737352299875
      ],
      [
        "▁evaluate",
        -10.287013235328281
      ],
      [
        "သက်",
        -10.288124568439585
      ],
      [
        "ဍုၚ်သေံ",
        -10.288245511546961
      ],
      [
        "နွံရောၚ်",
        -10.288308342051694
      ],
      [
        "မိတ်",
        -10.28834618045843
      ],
      [
        "▁innovation",
        -10.28836161597716
      ],
      [
        "▁မတ်",
        -10.288478174955099
      ],
      [
        "အာကဵု",
        -10.288486436963442
      ],
      [
        "▁woman",
        -10.289126748245309
      ],
      [
        "ဥူ",
        -10.2893375263155
      ],
      [
        "တြဴ",
        -10.289560078791439
      ],
      [
        "▁perspective",
        -10.289908470779352
      ],
      [
        "▁brain",
        -10.290008465644682
      ],
      [
        "▁planning",
        -10.290063181079725
      ],
      [
        "ၚ",
        -10.290066246922308
      ],
      [
        "▁စွေက်",
        -10.290177088239492
      ],
      [
        "▁ပ္ဍဲအခိင်ဂှ်",
        -10.291878790283487
      ],
      [
        "ဗု",
        -10.292526719649961
      ],
      [
        "▁developer",
        -10.293042043899558
      ],
      [
        "▁စွံ",
        -10.293300968381075
      ],
      [
        "▁separate",
        -10.29343175879303
      ],
      [
        "ပေင်",
        -10.293825797037423
      ],
      [
        "▁milk",
        -10.293948126721839
      ],
      [
        "▁join",
        -10.294023064310746
      ],
      [
        "ၜိုဟ်",
        -10.294602141218112
      ],
      [
        "▁lifestyle",
        -10.294990363261505
      ],
      [
        "▁sauce",
        -10.295011494690291
      ],
      [
        "▁cooking",
        -10.29593910938824
      ],
      [
        "▁thoughts",
        -10.296141578130753
      ],
      [
        "▁round",
        -10.296211323558826
      ],
      [
        "▁navigate",
        -10.296853064809085
      ],
      [
        "ဣသိ",
        -10.297316719560937
      ],
      [
        "▁ဨ",
        -10.297976180744236
      ],
      [
        "spending",
        -10.299434730382671
      ],
      [
        "တန်ဒၟံၚ်",
        -10.299456153510484
      ],
      [
        "ပိုဲတံ",
        -10.299510076633709
      ],
      [
        "▁ဆ္ဂး",
        -10.300136398103366
      ],
      [
        "▁leg",
        -10.300143904495734
      ],
      [
        "▁coffee",
        -10.300196136636952
      ],
      [
        "▁regulation",
        -10.30032061970946
      ],
      [
        "▁dream",
        -10.300849502906885
      ],
      [
        "▁reader",
        -10.300966014149433
      ],
      [
        "▁ဂၠးတိ",
        -10.301241685449021
      ],
      [
        "▁တြုံ",
        -10.301619926717784
      ],
      [
        "ပု",
        -10.302254074777085
      ],
      [
        "▁ညးမဒှ်",
        -10.302362046198208
      ],
      [
        "▁(၉)",
        -10.302436262489916
      ],
      [
        "▁Mor",
        -10.304042093533273
      ],
      [
        "▁variables",
        -10.30416833123911
      ],
      [
        "▁interpret",
        -10.304498433793807
      ],
      [
        "▁chain",
        -10.304593705680436
      ],
      [
        "▁လၟေင်",
        -10.30465698024797
      ],
      [
        "▁collaboration",
        -10.304934464665001
      ],
      [
        "4,",
        -10.30529928281257
      ],
      [
        "▁combine",
        -10.305411876580823
      ],
      [
        "▁benefit",
        -10.305412761506206
      ],
      [
        "အခိင်",
        -10.30563405320429
      ],
      [
        "▁Bot",
        -10.305697450039514
      ],
      [
        "▁spend",
        -10.30611957307468
      ],
      [
        "▁25",
        -10.306285760093274
      ],
      [
        "reliable",
        -10.306452301818396
      ],
      [
        "▁push",
        -10.306786436747657
      ],
      [
        "▁တိုက်",
        -10.306988879801764
      ],
      [
[...]
